{
    "!": 0,
    "\"": 1,
    "#": 2,
    "$": 3,
    "%": 4,
    "&": 5,
    "'": 6,
    "(": 7,
    ")": 8,
    "*": 9,
    "+": 10,
    ",": 11,
    "-": 12,
    ".": 13,
    "/": 14,
    "0": 15,
    "1": 16,
    "2": 17,
    "3": 18,
    "4": 19,
    "5": 20,
    "6": 21,
    "7": 22,
    "8": 23,
    "9": 24,
    ":": 25,
    ";": 26,
    "<": 27,
    "=": 28,
    ">": 29,
    "?": 30,
    "@": 31,
    "A": 32,
    "B": 33,
    "C": 34,
    "D": 35,
    "E": 36,
    "F": 37,
    "G": 38,
    "H": 39,
    "I": 40,
    "J": 41,
    "K": 42,
    "L": 43,
    "M": 44,
    "N": 45,
    "O": 46,
    "P": 47,
    "Q": 48,
    "R": 49,
    "S": 50,
    "T": 51,
    "U": 52,
    "V": 53,
    "W": 54,
    "X": 55,
    "Y": 56,
    "Z": 57,
    "[": 58,
    "\\": 59,
    "]": 60,
    "^": 61,
    "_": 62,
    "`": 63,
    "a": 64,
    "b": 65,
    "c": 66,
    "d": 67,
    "e": 68,
    "f": 69,
    "g": 70,
    "h": 71,
    "i": 72,
    "j": 73,
    "k": 74,
    "l": 75,
    "m": 76,
    "n": 77,
    "o": 78,
    "p": 79,
    "q": 80,
    "r": 81,
    "s": 82,
    "t": 83,
    "u": 84,
    "v": 85,
    "w": 86,
    "x": 87,
    "y": 88,
    "z": 89,
    "{": 90,
    "|": 91,
    "}": 92,
    "~": 93,
    "\u00a1": 94,
    "\u00a2": 95,
    "\u00a3": 96,
    "\u00a4": 97,
    "\u00a5": 98,
    "\u00a6": 99,
    "\u00a7": 100,
    "\u00a8": 101,
    "\u00a9": 102,
    "\u00aa": 103,
    "\u00ab": 104,
    "\u00ac": 105,
    "\u00ae": 106,
    "\u00af": 107,
    "\u00b0": 108,
    "\u00b1": 109,
    "\u00b2": 110,
    "\u00b3": 111,
    "\u00b4": 112,
    "\u00b5": 113,
    "\u00b6": 114,
    "\u00b7": 115,
    "\u00b8": 116,
    "\u00b9": 117,
    "\u00ba": 118,
    "\u00bb": 119,
    "\u00bc": 120,
    "\u00bd": 121,
    "\u00be": 122,
    "\u00bf": 123,
    "\u00c0": 124,
    "\u00c1": 125,
    "\u00c2": 126,
    "\u00c3": 127,
    "\u00c4": 128,
    "\u00c5": 129,
    "\u00c6": 130,
    "\u00c7": 131,
    "\u00c8": 132,
    "\u00c9": 133,
    "\u00ca": 134,
    "\u00cb": 135,
    "\u00cc": 136,
    "\u00cd": 137,
    "\u00ce": 138,
    "\u00cf": 139,
    "\u00d0": 140,
    "\u00d1": 141,
    "\u00d2": 142,
    "\u00d3": 143,
    "\u00d4": 144,
    "\u00d5": 145,
    "\u00d6": 146,
    "\u00d7": 147,
    "\u00d8": 148,
    "\u00d9": 149,
    "\u00da": 150,
    "\u00db": 151,
    "\u00dc": 152,
    "\u00dd": 153,
    "\u00de": 154,
    "\u00df": 155,
    "\u00e0": 156,
    "\u00e1": 157,
    "\u00e2": 158,
    "\u00e3": 159,
    "\u00e4": 160,
    "\u00e5": 161,
    "\u00e6": 162,
    "\u00e7": 163,
    "\u00e8": 164,
    "\u00e9": 165,
    "\u00ea": 166,
    "\u00eb": 167,
    "\u00ec": 168,
    "\u00ed": 169,
    "\u00ee": 170,
    "\u00ef": 171,
    "\u00f0": 172,
    "\u00f1": 173,
    "\u00f2": 174,
    "\u00f3": 175,
    "\u00f4": 176,
    "\u00f5": 177,
    "\u00f6": 178,
    "\u00f7": 179,
    "\u00f8": 180,
    "\u00f9": 181,
    "\u00fa": 182,
    "\u00fb": 183,
    "\u00fc": 184,
    "\u00fd": 185,
    "\u00fe": 186,
    "\u00ff": 187,
    "\u0100": 188,
    "\u0101": 189,
    "\u0102": 190,
    "\u0103": 191,
    "\u0104": 192,
    "\u0105": 193,
    "\u0106": 194,
    "\u0107": 195,
    "\u0108": 196,
    "\u0109": 197,
    "\u010a": 198,
    "\u010b": 199,
    "\u010c": 200,
    "\u010d": 201,
    "\u010e": 202,
    "\u010f": 203,
    "\u0110": 204,
    "\u0111": 205,
    "\u0112": 206,
    "\u0113": 207,
    "\u0114": 208,
    "\u0115": 209,
    "\u0116": 210,
    "\u0117": 211,
    "\u0118": 212,
    "\u0119": 213,
    "\u011a": 214,
    "\u011b": 215,
    "\u011c": 216,
    "\u011d": 217,
    "\u011e": 218,
    "\u011f": 219,
    "\u0120": 220,
    "\u0121": 221,
    "\u0122": 222,
    "\u0123": 223,
    "\u0124": 224,
    "\u0125": 225,
    "\u0126": 226,
    "\u0127": 227,
    "\u0128": 228,
    "\u0129": 229,
    "\u012a": 230,
    "\u012b": 231,
    "\u012c": 232,
    "\u012d": 233,
    "\u012e": 234,
    "\u012f": 235,
    "\u0130": 236,
    "\u0131": 237,
    "\u0132": 238,
    "\u0133": 239,
    "\u0134": 240,
    "\u0135": 241,
    "\u0136": 242,
    "\u0137": 243,
    "\u0138": 244,
    "\u0139": 245,
    "\u013a": 246,
    "\u013b": 247,
    "\u013c": 248,
    "\u013d": 249,
    "\u013e": 250,
    "\u013f": 251,
    "\u0140": 252,
    "\u0141": 253,
    "\u0142": 254,
    "\u0143": 255,
    "in": 256,
    "\u0120t": 257,
    "re": 258,
    "he": 259,
    "on": 260,
    "ti": 261,
    "en": 262,
    "\u0120o": 263,
    "er": 264,
    "\u0120the": 265,
    "\u0120s": 266,
    "\u0120c": 267,
    "al": 268,
    "ed": 269,
    "\u0120p": 270,
    "es": 271,
    "at": 272,
    "\u0120an": 273,
    "or": 274,
    "\u0120w": 275,
    "an": 276,
    "tion": 277,
    "is": 278,
    "ro": 279,
    "it": 280,
    "\u0120m": 281,
    "\u0120f": 282,
    "\u0120and": 283,
    "\u0120d": 284,
    "ic": 285,
    "as": 286,
    "ar": 287,
    "ing": 288,
    "\u0120b": 289,
    "le": 290,
    "\u0120re": 291,
    "ent": 292,
    "ation": 293,
    "el": 294,
    "\u0120to": 295,
    "us": 296,
    "ac": 297,
    "ol": 298,
    "et": 299,
    "\u0120th": 300,
    "os": 301,
    "ig": 302,
    "ur": 303,
    "id": 304,
    "\u0120l": 305,
    "im": 306,
    "ve": 307,
    "ith": 308,
    "un": 309,
    "ere": 310,
    "ly": 311,
    "\u0120with": 312,
    "\u0120C": 313,
    "\u0120A": 314,
    "\u0120for": 315,
    "ter": 316,
    "il": 317,
    "..": 318,
    "\u0120con": 319,
    "\u0120pro": 320,
    "ow": 321,
    "if": 322,
    "ut": 323,
    "tic": 324,
    "\u0120as": 325,
    "\u0120is": 326,
    "od": 327,
    "um": 328,
    "am": 329,
    "\u0120The": 330,
    "ts": 331,
    "ated": 332,
    "st": 333,
    "ity": 334,
    "ure": 335,
    "ab": 336,
    "\u0120on": 337,
    "em": 338,
    "ati": 339,
    "\u0120was": 340,
    "ri": 341,
    "op": 342,
    "ell": 343,
    "ir": 344,
    "ag": 345,
    "\u0120that": 346,
    "\u0120be": 347,
    "ud": 348,
    "ver": 349,
    "\u0120were": 350,
    "ment": 351,
    "\u0120com": 352,
    "\u0120by": 353,
    "\u0120res": 354,
    "qu": 355,
    "\u0120al": 356,
    "\u0120ac": 357,
    "ted": 358,
    "rom": 359,
    "up": 360,
    "her": 361,
    "\u0120R": 362,
    "ical": 363,
    ".,": 364,
    "ain": 365,
    "ran": 366,
    "\u0120E": 367,
    "ay": 368,
    "\u0120us": 369,
    "ff": 370,
    "\u0120B": 371,
    "pl": 372,
    "se": 373,
    "ant": 374,
    "\u0120or": 375,
    "\u0120are": 376,
    "\u0120at": 377,
    "\u0120de": 378,
    "vel": 379,
    "ess": 380,
    "ents": 381,
    "\u0120ch": 382,
    "ine": 383,
    "ase": 384,
    "\u0120from": 385,
    "ore": 386,
    "...,": 387,
    "\u0120dis": 388,
    "sion": 389,
    "\u0120cell": 390,
    "\u0120In": 391,
    "und": 392,
    "ers": 393,
    "\u0120wh": 394,
    "\u0120inc": 395,
    "ub": 396,
    "igh": 397,
    "te": 398,
    "\u0120se": 399,
    "\u0120sh": 400,
    "duc": 401,
    "ys": 402,
    "\u0120G": 403,
    "ies": 404,
    "\u0120L": 405,
    "per": 406,
    "orm": 407,
    "por": 408,
    "ign": 409,
    "tr": 410,
    "ations": 411,
    "\u0120ad": 412,
    "\u0120pre": 413,
    "\u0120en": 414,
    "ch": 415,
    "\u0120le": 416,
    "ous": 417,
    "pres": 418,
    "ence": 419,
    "\u0120gen": 420,
    "\u0120he": 421,
    "\u0120per": 422,
    "\u0120ne": 423,
    "iff": 424,
    ").": 425,
    "ip": 426,
    "\u0120can": 427,
    "are": 428,
    "ial": 429,
    "eren": 430,
    "\u0120cont": 431,
    "lec": 432,
    "\u0120co": 433,
    "and": 434,
    "able": 435,
    "\u0120diff": 436,
    "est": 437,
    "\u0120we": 438,
    "ap": 439,
    "),": 440,
    "tions": 441,
    "\u0120ass": 442,
    "\u0120#": 443,
    "ge": 444,
    "\u0120inf": 445,
    "\u0120not": 446,
    "\u0120par": 447,
    "ary": 448,
    "\u0120this": 449,
    "ia": 450,
    "\u0120it": 451,
    "ved": 452,
    "\u0120ap": 453,
    "\u0120di": 454,
    "ors": 455,
    "\u0120sign": 456,
    "ist": 457,
    "ased": 458,
    "\u0120met": 459,
    "olog": 460,
    "\u0120gro": 461,
    "\u0120mod": 462,
    "\u0120anal": 463,
    "ding": 464,
    "\u0120ha": 465,
    "\u0120cells": 466,
    "rans": 467,
    "age": 468,
    "\u0120Fig": 469,
    "\u0120int": 470,
    "\u0120which": 471,
    "\u0120inter": 472,
    "ular": 473,
    "\u0120study": 474,
    "pro": 475,
    "\u0120patients": 476,
    "ple": 477,
    "\u0120show": 478,
    "ong": 479,
    "ative": 480,
    "\u0120ob": 481,
    "een": 482,
    "ep": 483,
    "ear": 484,
    "\u0120ab": 485,
    "ast": 486,
    "ally": 487,
    "reat": 488,
    "\u0120Figure": 489,
    "\u0120reg": 490,
    "all": 491,
    "\u0120between": 492,
    "\u0120have": 493,
    "val": 494,
    "\u0120ph": 495,
    "ory": 496,
    "low": 497,
    "ates": 498,
    "\u0120me": 499,
    "\u0120,": 500,
    "ata": 501,
    "enc": 502,
    "ome": 503,
    "form": 504,
    "end": 505,
    "\u0120trans": 506,
    "ill": 507,
    "ren": 508,
    "ysis": 509,
    "hen": 510,
    "pon": 511,
    "\u0120using": 512,
    "\u0120rec": 513,
    "ight": 514,
    "\u0120sub": 515,
    "ath": 516,
    "dic": 517,
    "rib": 518,
    "pt": 519,
    "\u0120##": 520,
    "tein": 521,
    "\u0120cons": 522,
    "\u0120spec": 523,
    "tim": 524,
    "oci": 525,
    "so": 526,
    "ven": 527,
    "our": 528,
    "ility": 529,
    "\u0120Th": 530,
    "ose": 531,
    "pression": 532,
    "\u0120sam": 533,
    "\u0120group": 534,
    "\u0120incre": 535,
    "yl": 536,
    "ens": 537,
    "ting": 538,
    "ound": 539,
    "\u0120rel": 540,
    "\u0120mic": 541,
    "\u0120sur": 542,
    "\u0120used": 543,
    "\u0120cor": 544,
    "ied": 545,
    "ulation": 546,
    "\u0120signific": 547,
    "ass": 548,
    "erm": 549,
    "ual": 550,
    "\u0120am": 551,
    "\u0120data": 552,
    "\u0120also": 553,
    "ection": 554,
    "\u0120.": 555,
    "ating": 556,
    "ater": 557,
    "\u0120str": 558,
    "\u0120analysis": 559,
    "\u0120qu": 560,
    "\u0120un": 561,
    "ide": 562,
    "\u0120model": 563,
    "\u0120protein": 564,
    "ech": 565,
    "acter": 566,
    "\u0120has": 567,
    "\u0120level": 568,
    "\u0120acc": 569,
    "\u0120significant": 570,
    "\u0120vari": 571,
    "\u0120activ": 572,
    "iti": 573,
    "one": 574,
    "mun": 575,
    "\u0120ro": 576,
    "\u0120tim": 577,
    "rain": 578,
    "rap": 579,
    "\u0120pos": 580,
    "ard": 581,
    "\u0120anti": 582,
    "ution": 583,
    "\u0120high": 584,
    "ases": 585,
    "ox": 586,
    "\u0120been": 587,
    "\u0120val": 588,
    "ym": 589,
    "\u0120all": 590,
    "\u0120their": 591,
    "tal": 592,
    "out": 593,
    "\u0120than": 594,
    "\u0120bi": 595,
    "\u0120other": 596,
    "uch": 597,
    "tain": 598,
    "ture": 599,
    "\u0120ag": 600,
    "unction": 601,
    "\u0120these": 602,
    "alth": 603,
    "\u0120und": 604,
    "\u0120sup": 605,
    "uring": 606,
    "\u0120treatment": 607,
    "ures": 608,
    "\u0120after": 609,
    "\u0120out": 610,
    "\u0120meth": 611,
    "dition": 612,
    "\u0120more": 613,
    "cer": 614,
    "aus": 615,
    "red": 616,
    "oth": 617,
    "ser": 618,
    "\u0120low": 619,
    "ber": 620,
    "ization": 621,
    "ever": 622,
    "duced": 623,
    "ants": 624,
    "\u0120expression": 625,
    "\u0120two": 626,
    "\u0120-": 627,
    "\u0120ar": 628,
    "\u0120may": 629,
    "\u0120under": 630,
    "\u0120system": 631,
    "\u0120fol": 632,
    "\u0120control": 633,
    "\u0120man": 634,
    "atic": 635,
    "\u0120different": 636,
    "\u0120dec": 637,
    "ne": 638,
    "ogen": 639,
    "\u0120studies": 640,
    "osis": 641,
    "ect": 642,
    "ism": 643,
    "\u0120perform": 644,
    "hem": 645,
    "ond": 646,
    "\u0120ra": 647,
    "ite": 648,
    "\u0120This": 649,
    "ail": 650,
    "\u0120time": 651,
    "ological": 652,
    "inal": 653,
    "tical": 654,
    "\u0120form": 655,
    "\u0120li": 656,
    "\u0120but": 657,
    "\u0120Al": 658,
    "\u0120follow": 659,
    "rel": 660,
    "ature": 661,
    "\u0120An": 662,
    "\u0120num": 663,
    "\u0120develop": 664,
    "\u0120health": 665,
    "\u0120each": 666,
    "les": 667,
    "ability": 668,
    "\u0120method": 669,
    "als": 670,
    "\u0120during": 671,
    "\u0120function": 672,
    "ered": 673,
    "\u0120gene": 674,
    "action": 675,
    "duction": 676,
    "\u0120such": 677,
    "ons": 678,
    "\u0120id": 679,
    "ici": 680,
    "\u0120path": 681,
    "\u0120one": 682,
    "\u0120We": 683,
    "ble": 684,
    "hed": 685,
    "\u0120pol": 686,
    "ype": 687,
    "ric": 688,
    "\u0120into": 689,
    "ces": 690,
    "\u0120St": 691,
    "ry": 692,
    "atory": 693,
    "\u0120Ch": 694,
    "\u0120both": 695,
    "\u0120hy": 696,
    "\u0120up": 697,
    "\u0120our": 698,
    "\u0120present": 699,
    "\u0120non": 700,
    "ology": 701,
    "\u0120cancer": 702,
    "ption": 703,
    "The": 704,
    "vol": 705,
    "ines": 706,
    "ium": 707,
    "\u0120its": 708,
    "ould": 709,
    "rough": 710,
    "\u0120conc": 711,
    "\u0120use": 712,
    "ord": 713,
    "\u0120found": 714,
    "oin": 715,
    "ential": 716,
    "ments": 717,
    "\u0120had": 718,
    "\u0120levels": 719,
    "ress": 720,
    "\u0120ran": 721,
    "\u0120disease": 722,
    "\u0120measure": 723,
    "\u0120effect": 724,
    "ency": 725,
    "\u0120process": 726,
    "\u0120human": 727,
    "\u0120activity": 728,
    "own": 729,
    "\u0120only": 730,
    "ination": 731,
    "ties": 732,
    "ulated": 733,
    "view": 734,
    "\u0120mul": 735,
    "\u0120pot": 736,
    "usion": 737,
    "tics": 738,
    "\u0120associated": 739,
    "\u0120shown": 740,
    "\u0120number": 741,
    "\u0120immun": 742,
    "yn": 743,
    "ving": 744,
    "oid": 745,
    "\u0120compared": 746,
    "ale": 747,
    "\u0120def": 748,
    "\u0120risk": 749,
    "\u0120clinical": 750,
    "\u0120end": 751,
    "mon": 752,
    "\u0120test": 753,
    "\u0120syn": 754,
    "\u0120As": 755,
    "raph": 756,
    "ages": 757,
    "\u0120micro": 758,
    "\u0120tum": 759,
    "\u0120sec": 760,
    "ize": 761,
    "\u0120through": 762,
    "\u0120most": 763,
    "ron": 764,
    "tit": 765,
    "\u0120well": 766,
    "ement": 767,
    "\u0120Table": 768,
    "press": 769,
    "\u0120higher": 770,
    "\u0120character": 771,
    "RNA": 772,
    "\u0120when": 773,
    "\u0120cal": 774,
    "\u0120effects": 775,
    "\u0120could": 776,
    "\u0120reported": 777,
    "\u0120where": 778,
    "ples": 779,
    "\u0120ref": 780,
    "\u0120exam": 781,
    "ise": 782,
    "oun": 783,
    "\u0120dem": 784,
    "\u0120observed": 785,
    "\u0120increased": 786,
    "led": 787,
    "ause": 788,
    "\u0120imp": 789,
    "\u0120three": 790,
    "ort": 791,
    "ft": 792,
    "\u0120addition": 793,
    "\u0120year": 794,
    "\u0120sequ": 795,
    "omes": 796,
    "\u0120aut": 797,
    "\u0120Re": 798,
    "\u0120sugg": 799,
    "\u0120do": 800,
    "\u0120ver": 801,
    "\u0120assess": 802,
    "\u0120concentr": 803,
    "\u0120showed": 804,
    "\u0120pop": 805,
    "\u0120first": 806,
    "med": 807,
    "\u0120ins": 808,
    "sive": 809,
    "\u0120acid": 810,
    "\u0120work": 811,
    "\u0120However": 812,
    "\u0120performed": 813,
    "over": 814,
    "ive": 815,
    "ness": 816,
    "\u0120consid": 817,
    "ental": 818,
    "\u0120genes": 819,
    "tained": 820,
    "\u0120they": 821,
    "\u0120Z": 822,
    "\u0120import": 823,
    "\u0120based": 824,
    "\u0120multi": 825,
    "\u0120For": 826,
    "ie": 827,
    "\u0120groups": 828,
    "\u0120set": 829,
    "reg": 830,
    "\u0120Con": 831,
    "\u0120evalu": 832,
    "ice": 833,
    "\u0120Com": 834,
    "tig": 835,
    "\u0120previous": 836,
    "ning": 837,
    "\u0120main": 838,
    "its": 839,
    "\u0120significantly": 840,
    "\u0120factors": 841,
    "\u0120elec": 842,
    "\u0120inhibit": 843,
    "pit": 844,
    "ross": 845,
    "\u0120target": 846,
    "\u0120tem": 847,
    "art": 848,
    "\u0120response": 849,
    "\u0120region": 850,
    "\u0120among": 851,
    "ucle": 852,
    "\u0120calc": 853,
    "\u0120disc": 854,
    "\u0120patient": 855,
    "ex": 856,
    "iel": 857,
    "\u0120will": 858,
    "ody": 859,
    "\u0120mice": 860,
    "\u0120some": 861,
    "\u0120rate": 862,
    "ograph": 863,
    "hel": 864,
    "\u0120vir": 865,
    "\u0120Y": 866,
    "ality": 867,
    "\u0120within": 868,
    "\u0120due": 869,
    "\u0120vi": 870,
    "asm": 871,
    "ities": 872,
    "ependent": 873,
    "\u0120age": 874,
    "oma": 875,
    "\u0120development": 876,
    "ently": 877,
    "ics": 878,
    "\u0120individual": 879,
    "\u0120role": 880,
    "\u0120total": 881,
    "\u0120including": 882,
    "ink": 883,
    "\u0120ind": 884,
    "ived": 885,
    "\u0120Pro": 886,
    "cop": 887,
    "\u0120tri": 888,
    "\u0120Res": 889,
    "\u0120It": 890,
    "\u0120care": 891,
    "ov": 892,
    "\u0120occ": 893,
    "\u0120potential": 894,
    "\u0120pe": 895,
    "ield": 896,
    "ins": 897,
    "\u0120long": 898,
    "face": 899,
    "iter": 900,
    "\u0120values": 901,
    "osph": 902,
    "\u0120antib": 903,
    "ake": 904,
    "\u0120To": 905,
    "\u0120CD": 906,
    "\u0120respectively": 907,
    "\u0120new": 908,
    "\u0120correl": 909,
    "\u0120those": 910,
    "CR": 911,
    "\u0120increase": 912,
    "\u0120ox": 913,
    "\u0120signal": 914,
    "\u0120specific": 915,
    "\u0120child": 916,
    "zed": 917,
    "\u0120chan": 918,
    "ited": 919,
    "ication": 920,
    "\u0120There": 921,
    "\u0120similar": 922,
    "\u0120post": 923,
    "based": 924,
    "\u0120years": 925,
    "\u0120same": 926,
    "\u0120research": 927,
    "\u0120av": 928,
    "\u0120app": 929,
    "\u0120class": 930,
    "\u0120mean": 931,
    "\u0120cap": 932,
    "\u0120review": 933,
    "\u0120need": 934,
    "\u0120cyt": 935,
    "ified": 936,
    "\u0120DNA": 937,
    "ung": 938,
    "\u0120while": 939,
    "\u0120small": 940,
    "\u0120complex": 941,
    "\u0120then": 942,
    "\u0120lower": 943,
    "\u0120vis": 944,
    "hip": 945,
    "asc": 946,
    "\u0120mat": 947,
    "\u0120tumor": 948,
    "\u0120important": 949,
    "\u0120growth": 950,
    "\u0120mechanism": 951,
    "\u0120proteins": 952,
    "\u0120changes": 953,
    "air": 954,
    "...": 955,
    "ove": 956,
    "\u0120further": 957,
    "\u0120line": 958,
    "acy": 959,
    "\u0120expl": 960,
    "ification": 961,
    "\u0120obtained": 962,
    "\u0120cr": 963,
    "con": 964,
    "\u0120comb": 965,
    "ful": 966,
    "oint": 967,
    "\u0120cases": 968,
    "\u0120drug": 969,
    "\u0120case": 970,
    "ults": 971,
    "\u0120stress": 972,
    "\u0120tra": 973,
    "\u0120information": 974,
    "\u0120following": 975,
    "\u0120stand": 976,
    "ites": 977,
    "\u0120metabol": 978,
    "\u0120blood": 979,
    "\u0120These": 980,
    "\u0120sym": 981,
    "\u0120represent": 982,
    "\u0120population": 983,
    "\u0120should": 984,
    "\u0120finding": 985,
    "\u0120sample": 986,
    "iod": 987,
    "\u0120Im": 988,
    "eration": 989,
    "ically": 990,
    "\u0120Un": 991,
    "\u0120conditions": 992,
    "\u0120structure": 993,
    "%)": 994,
    "\u0120normal": 995,
    "\u0120second": 996,
    "ses": 997,
    "\u0120type": 998,
    "\u0120factor": 999,
    "ick": 1000,
    "erc": 1001,
    "\u0120pat": 1002,
    "ger": 1003,
    "min": 1004,
    "\u0120value": 1005,
    "ms": 1006,
    "viron": 1007,
    "\u0120inj": 1008,
    "\u0120sever": 1009,
    "\u0120size": 1010,
    "\u0120differences": 1011,
    "\u0120Sc": 1012,
    "uce": 1013,
    "ety": 1014,
    "\u0120temper": 1015,
    "\u0120flu": 1016,
    "\u0120any": 1017,
    "\u0120single": 1018,
    "\u0120participants": 1019,
    "\u0120species": 1020,
    "\u0120hyp": 1021,
    "\u0120mark": 1022,
    "\u0120about": 1023,
    "ately": 1024,
    "\u0120pers": 1025,
    "\u0120without": 1026,
    "ression": 1027,
    "elf": 1028,
    "\u0120methods": 1029,
    "af": 1030,
    "\u0120abs": 1031,
    "ision": 1032,
    "ty": 1033,
    "\u0120vol": 1034,
    "arm": 1035,
    "aging": 1036,
    "\u0120included": 1037,
    "\u0120models": 1038,
    "to": 1039,
    "\u0120chem": 1040,
    "ison": 1041,
    "\u0120fl": 1042,
    "sequ": 1043,
    "\u0120surface": 1044,
    "onal": 1045,
    "\u0120infection": 1046,
    "\u0120identified": 1047,
    "AT": 1048,
    "\u0120neg": 1049,
    "\u0120rat": 1050,
    "In": 1051,
    "\u0120related": 1052,
    "uted": 1053,
    "\u0120tissue": 1054,
    "\u0120caus": 1055,
    "\u0120again": 1056,
    "\u0120current": 1057,
    "\u0120pub": 1058,
    "cent": 1059,
    "ily": 1060,
    "\u0120organ": 1061,
    "\u0120period": 1062,
    "\u0120express": 1063,
    "\u0120described": 1064,
    "\u0120RNA": 1065,
    "posed": 1066,
    "\u0120proper": 1067,
    "actions": 1068,
    "omet": 1069,
    "\u0120network": 1070,
    "\u0120water": 1071,
    "\u0120term": 1072,
    "round": 1073,
    "\u0120gra": 1074,
    "\u0120positive": 1075,
    "\u0120design": 1076,
    "line": 1077,
    "ward": 1078,
    "\u0120red": 1079,
    "atal": 1080,
    "els": 1081,
    "other": 1082,
    "\u0120common": 1083,
    "\u0120therapy": 1084,
    "II": 1085,
    "\u0120if": 1086,
    "\u0120avail": 1087,
    "\u0120phys": 1088,
    "\u0120large": 1089,
    "\u0120All": 1090,
    "\u0120less": 1091,
    "ths": 1092,
    "\u0120ep": 1093,
    "\u0120membran": 1094,
    "\u0120pattern": 1095,
    "\u0120brain": 1096,
    "\u0120resist": 1097,
    "\u0120standard": 1098,
    "\u0120concentration": 1099,
    "\u0120because": 1100,
    "\u0120radi": 1101,
    "\u0120hydro": 1102,
    "\u0120children": 1103,
    "the": 1104,
    "RE": 1105,
    "ergy": 1106,
    "\u0120temperature": 1107,
    "\u0120presence": 1108,
    "\u0120activation": 1109,
    "\u0120exc": 1110,
    "\u0120att": 1111,
    "ables": 1112,
    "\u0120fam": 1113,
    "\u0120findings": 1114,
    "\u0120add": 1115,
    "\u0120multiple": 1116,
    "\u0120COVID": 1117,
    "\u0120phen": 1118,
    "\u0120before": 1119,
    "ulture": 1120,
    "\u0120measured": 1121,
    "ained": 1122,
    "\u0120approach": 1123,
    "\u0120primary": 1124,
    "\u0120quan": 1125,
    "\u0120considered": 1126,
    "\u0120local": 1127,
    "\u0120symptom": 1128,
    "\u0120against": 1129,
    "\u0120great": 1130,
    "\u0120improve": 1131,
    "mit": 1132,
    "\u0120change": 1133,
    "\u0120'": 1134,
    "ters": 1135,
    "\u0120major": 1136,
    "\u0120De": 1137,
    "\u0120stat": 1138,
    "\u0120difference": 1139,
    "\u0120occur": 1140,
    "asing": 1141,
    "\u0120strain": 1142,
    "\u0120binding": 1143,
    "inf": 1144,
    "ae": 1145,
    "\u0120my": 1146,
    "\u0120isol": 1147,
    "\u0120relationship": 1148,
    "\u0120evidence": 1149,
    "ince": 1150,
    "\u0120four": 1151,
    "\u0120characteristics": 1152,
    "related": 1153,
    "\u0120via": 1154,
    "ospital": 1155,
    "\u0120reduced": 1156,
    "term": 1157,
    "\u0120performance": 1158,
    "\u0120distribution": 1159,
    "\u0120quality": 1160,
    "\u0120pur": 1161,
    "ules": 1162,
    "\u0120result": 1163,
    "\u0120phase": 1164,
    "\u0120hyper": 1165,
    "ling": 1166,
    "\u0120lab": 1167,
    "\u0120material": 1168,
    "verse": 1169,
    "\u0120Ac": 1170,
    "\u0120several": 1171,
    "\u0120virus": 1172,
    "erence": 1173,
    "\u0120prac": 1174,
    "\u0120according": 1175,
    "\u0120early": 1176,
    "\u0120cur": 1177,
    "\u0120part": 1178,
    "esis": 1179,
    "\u0120gu": 1180,
    "\u0120contr": 1181,
    "\u0120fac": 1182,
    "IG": 1183,
    "\u0120treated": 1184,
    "\u0120range": 1185,
    "\u0120reveal": 1186,
    "\u0120women": 1187,
    "ycl": 1188,
    "\u0120lip": 1189,
    "\u0120bet": 1190,
    "\u0120parameters": 1191,
    "\u0120week": 1192,
    "\u0120possible": 1193,
    "\u0120many": 1194,
    "\u0120Pre": 1195,
    "ually": 1196,
    "\u0120po": 1197,
    "\u0120On": 1198,
    "\u0120bel": 1199,
    "ina": 1200,
    "\u0120sus": 1201,
    "omy": 1202,
    "\u0120receptor": 1203,
    "ount": 1204,
    "\u0120production": 1205,
    "pir": 1206,
    "lation": 1207,
    "\u0120environment": 1208,
    "very": 1209,
    "\u0120functional": 1210,
    "\u0120being": 1211,
    "\u0120impact": 1212,
    "\u0120various": 1213,
    "MS": 1214,
    "tically": 1215,
    "\u0120neur": 1216,
    "ances": 1217,
    "\u0120allow": 1218,
    "\u0120outcomes": 1219,
    "\u0120area": 1220,
    "\u0120random": 1221,
    "\u0120properties": 1222,
    "rial": 1223,
    "\u0120max": 1224,
    "ised": 1225,
    "\u0120general": 1226,
    "\u0120them": 1227,
    "\u0120available": 1228,
    "ey": 1229,
    "ored": 1230,
    "\u0120consist": 1231,
    "\u0120resistance": 1232,
    "ps": 1233,
    "\u0120strong": 1234,
    "\u0120field": 1235,
    "\u0120order": 1236,
    "ule": 1237,
    "emic": 1238,
    "\u0120circ": 1239,
    "\u0120pri": 1240,
    "\u0120At": 1241,
    "kin": 1242,
    "\u0120energy": 1243,
    "\u0120Further": 1244,
    "\u0120immune": 1245,
    "\u0120recom": 1246,
    "\u0120negative": 1247,
    "\u0120previously": 1248,
    "\u0120weight": 1249,
    "ogene": 1250,
    "ended": 1251,
    "\u0120signaling": 1252,
    "\u0120presented": 1253,
    "\u0120survival": 1254,
    "\u0120might": 1255,
    "\u0120analyses": 1256,
    "\u0120pathway": 1257,
    "\u0120formation": 1258,
    "Cs": 1259,
    "idence": 1260,
    "man": 1261,
    "\u0120flow": 1262,
    "\u0120across": 1263,
    "\u0120determined": 1264,
    "\u0120demonstrated": 1265,
    "thesis": 1266,
    "%,": 1267,
    "\u0120body": 1268,
    "\u0120membrane": 1269,
    "\u0120diagnosis": 1270,
    "\u0120experiments": 1271,
    "\u0120mix": 1272,
    "\u0120molecular": 1273,
    "\u0120shows": 1274,
    "onic": 1275,
    "amin": 1276,
    "uration": 1277,
    "\u0120ratio": 1278,
    "\u0120state": 1279,
    "\u0120sl": 1280,
    "\u0120particular": 1281,
    "\u0120self": 1282,
    "\u0120involved": 1283,
    "\u0120expos": 1284,
    "\u0120expressed": 1285,
    "mission": 1286,
    "\u0120social": 1287,
    "\u0120behavior": 1288,
    "\u0120te": 1289,
    "\u0120culture": 1290,
    "\u0120interaction": 1291,
    "icity": 1292,
    "ides": 1293,
    "enter": 1294,
    "\u0120average": 1295,
    "\u0120men": 1296,
    "\u0120hel": 1297,
    "\u0120support": 1298,
    "ds": 1299,
    "oring": 1300,
    "\u0120loss": 1301,
    "\u0120life": 1302,
    "\u0120mit": 1303,
    "\u0120above": 1304,
    "\u0120down": 1305,
    "ulin": 1306,
    "\u0120solution": 1307,
    "ators": 1308,
    "\u0120Li": 1309,
    "\u0120bu": 1310,
    "cence": 1311,
    "\u0120program": 1312,
    "\u0120bar": 1313,
    "\u0120day": 1314,
    "\u0120conducted": 1315,
    "\u0120given": 1316,
    "ols": 1317,
    "\u0120electro": 1318,
    "ration": 1319,
    "\u0120adj": 1320,
    "\u0120liver": 1321,
    "ER": 1322,
    "\u0120individuals": 1323,
    "\u0120known": 1324,
    "\u0120est": 1325,
    "gl": 1326,
    "\u0120detection": 1327,
    "\u0120months": 1328,
    "\u0120valid": 1329,
    "\u0120symptoms": 1330,
    "\u0120example": 1331,
    "\u0120responses": 1332,
    "\u0120independent": 1333,
    "ets": 1334,
    "\u0120pain": 1335,
    "ists": 1336,
    "\u0120suc": 1337,
    "\u0120sequence": 1338,
    "\u0120association": 1339,
    "\u0120mM": 1340,
    "\u0120score": 1341,
    "ices": 1342,
    "\u0120lung": 1343,
    "\u0120serum": 1344,
    "\u0120Therefore": 1345,
    "\u0120read": 1346,
    "\u0120required": 1347,
    "\u0120how": 1348,
    "ions": 1349,
    "\u0120rates": 1350,
    "\u0120concentrations": 1351,
    "ury": 1352,
    "\u0120death": 1353,
    "ible": 1354,
    "like": 1355,
    "valence": 1356,
    "\u0120likely": 1357,
    "\u0120decreased": 1358,
    "des": 1359,
    "\u0120either": 1360,
    "specific": 1361,
    "\u0120transcription": 1362,
    "\u0120images": 1363,
    "\u0120Co": 1364,
    "\u0120carb": 1365,
    "\u0120mass": 1366,
    "bility": 1367,
    "\u0120variables": 1368,
    "\u0120cross": 1369,
    "\u0120ang": 1370,
    "\u0120dynam": 1371,
    "\u0120vs": 1372,
    "\u0120detected": 1373,
    "\u0120phot": 1374,
    "\u0120systems": 1375,
    "\u0120sour": 1376,
    "\u0120exposure": 1377,
    "ering": 1378,
    "\u0120Se": 1379,
    "\u0120revealed": 1380,
    "\u0120mechanisms": 1381,
    "\u0120lay": 1382,
    "\u0120relative": 1383,
    "\u0120times": 1384,
    "\u0120status": 1385,
    "\u0120focus": 1386,
    "ably": 1387,
    "\u0120correlation": 1388,
    "ogenesis": 1389,
    "\u0120physical": 1390,
    "ocytes": 1391,
    "\u0120ill": 1392,
    "\u0120family": 1393,
    "aneous": 1394,
    "dependent": 1395,
    "\u0120Results": 1396,
    "\u0120comparison": 1397,
    "\u0120types": 1398,
    "otype": 1399,
    "\u0120light": 1400,
    "arch": 1401,
    "\u0120diseases": 1402,
    "\u0120content": 1403,
    "\u0120followed": 1404,
    "\u0120reduction": 1405,
    "\u0120point": 1406,
    "\u0120oxid": 1407,
    "\u0120identify": 1408,
    "\u0120features": 1409,
    "\u0120experimental": 1410,
    "bi": 1411,
    "ography": 1412,
    "orb": 1413,
    "roup": 1414,
    "Fig": 1415,
    "\u0120medical": 1416,
    "\u0120chronic": 1417,
    "\u0120training": 1418,
    "\u0120inv": 1419,
    "\u0120frequency": 1420,
    "\u0120management": 1421,
    "\u0120super": 1422,
    "\u0120lymph": 1423,
    "\u0120genetic": 1424,
    "\u0120site": 1425,
    "\u0120induced": 1426,
    "let": 1427,
    "ld": 1428,
    "\u0120Data": 1429,
    "\u0120screen": 1430,
    "\u0120breast": 1431,
    "\u0120public": 1432,
    "ession": 1433,
    "\u0120regions": 1434,
    "\u0120novel": 1435,
    "\u0120hospital": 1436,
    "\u0120PD": 1437,
    "\u0120step": 1438,
    "ries": 1439,
    "\u0120bone": 1440,
    "\u0120condition": 1441,
    "abil": 1442,
    "\u0120understand": 1443,
    "\u0120better": 1444,
    "\u0120psych": 1445,
    "\u0120food": 1446,
    "\u0120imaging": 1447,
    "\u0120mortality": 1448,
    "\u0120collected": 1449,
    "\u0120sex": 1450,
    "\u0120contrast": 1451,
    "\u0120link": 1452,
    "\u0120interest": 1453,
    "\u0120containing": 1454,
    "\u0120block": 1455,
    "tial": 1456,
    "\u0120developed": 1457,
    "\u0120people": 1458,
    "\u0120thus": 1459,
    "ring": 1460,
    "\u0120Ap": 1461,
    "\u0120top": 1462,
    "\u0120severe": 1463,
    "ried": 1464,
    "\u0120Cell": 1465,
    "\u0120surgery": 1466,
    "\u0120sites": 1467,
    "\u0120dose": 1468,
    "eric": 1469,
    "ially": 1470,
    "com": 1471,
    "\u0120CT": 1472,
    "\u0120pressure": 1473,
    "\u0120active": 1474,
    "\u0120selected": 1475,
    "\u0120Our": 1476,
    "\u0120prior": 1477,
    "\u0120Di": 1478,
    "\u0120record": 1479,
    "\u0120CI": 1480,
    "\u0120acute": 1481,
    "\u0120assessment": 1482,
    "\u0120applied": 1483,
    "\u0120hom": 1484,
    "\u0120fail": 1485,
    "ancy": 1486,
    "\u0120dys": 1487,
    "ogenic": 1488,
    "\u0120act": 1489,
    "istic": 1490,
    "ray": 1491,
    "\u0120however": 1492,
    "\u0120interactions": 1493,
    "\u0120density": 1494,
    "\u0120provided": 1495,
    "\u0120visual": 1496,
    "\u0120muscle": 1497,
    "\u0120left": 1498,
    "\u0120soft": 1499,
    "inant": 1500,
    "izing": 1501,
    "\u0120neuro": 1502,
    "ulate": 1503,
    "\u0120vitro": 1504,
    "\u0120gly": 1505,
    "\u0120learning": 1506,
    "active": 1507,
    "cell": 1508,
    "\u0120mRNA": 1509,
    "\u0120Gen": 1510,
    "\u0120Although": 1511,
    "\u0120liter": 1512,
    "ense": 1513,
    "\u0120reduc": 1514,
    "\u0120peak": 1515,
    "\u0120USA": 1516,
    "vities": 1517,
    "\u0120dam": 1518,
    "\u0120highly": 1519,
    "\u0120back": 1520,
    "ographic": 1521,
    "\u0120initial": 1522,
    "\u0120off": 1523,
    "\u0120greater": 1524,
    "\u0120medium": 1525,
    "ma": 1526,
    "\u0120mouse": 1527,
    "\u0120Me": 1528,
    "\u0120hand": 1529,
    "\u0120fat": 1530,
    "\u0120short": 1531,
    "\u0120index": 1532,
    "cin": 1533,
    "ising": 1534,
    "\u0120exhibit": 1535,
    "\u0120determine": 1536,
    "\u0120overall": 1537,
    "\u0120lack": 1538,
    "\u0120wor": 1539,
    "NF": 1540,
    "\u0120length": 1541,
    "aff": 1542,
    "utes": 1543,
    "opath": 1544,
    "\u0120eth": 1545,
    "ector": 1546,
    "\u0120evaluation": 1547,
    "\u0120stage": 1548,
    "\u0120Thus": 1549,
    "\u0120percent": 1550,
    "ids": 1551,
    "\u0120diet": 1552,
    "\u0120intervention": 1553,
    "\u0120key": 1554,
    "ours": 1555,
    "\u0120made": 1556,
    "rix": 1557,
    "\u0120domain": 1558,
    "\u0120Ar": 1559,
    "\u0120ability": 1560,
    "\u0120volume": 1561,
    "\u0120influence": 1562,
    "read": 1563,
    "ateral": 1564,
    "\u0120AD": 1565,
    "ylation": 1566,
    "\u0120image": 1567,
    "\u0120pathways": 1568,
    "type": 1569,
    "\u0120real": 1570,
    "\u0120recent": 1571,
    "tric": 1572,
    "\u0120knowledge": 1573,
    "\u0120right": 1574,
    "\u0120proposed": 1575,
    "\u0120decrease": 1576,
    "\u0120err": 1577,
    "otic": 1578,
    "\u0120position": 1579,
    "\u0120corresponding": 1580,
    "\u0120inhibition": 1581,
    "\u0120still": 1582,
    "plant": 1583,
    "\u0120question": 1584,
    "\u0120plasma": 1585,
    "\u0120vivo": 1586,
    "\u0120Furthermore": 1587,
    "\u0120plant": 1588,
    "\u0120transfer": 1589,
    "SD": 1590,
    "\u0120pa": 1591,
    "\u0120miR": 1592,
    "\u0120authors": 1593,
    "\u0120appear": 1594,
    "\u0120outcome": 1595,
    "\u0120coll": 1596,
    "\u0120Sim": 1597,
    "sing": 1598,
    "\u0120regulation": 1599,
    "\u0120free": 1600,
    "ales": 1601,
    "\u0120tissues": 1602,
    "\u0120areas": 1603,
    "\u0120injury": 1604,
    "\u0120whereas": 1605,
    "\u0120Health": 1606,
    "\u0120kin": 1607,
    "ones": 1608,
    "\u0120sequences": 1609,
    "\u0120detail": 1610,
    "\u0120include": 1611,
    "\u0120predict": 1612,
    "\u0120additional": 1613,
    "oxid": 1614,
    "virus": 1615,
    "\u0120biological": 1616,
    "lying": 1617,
    "\u0120tested": 1618,
    "\u0120genome": 1619,
    "\u0120subjects": 1620,
    "\u0120scores": 1621,
    "\u0120five": 1622,
    "enced": 1623,
    "formation": 1624,
    "ygen": 1625,
    "\u0120pH": 1626,
    "\u0120future": 1627,
    "\u0120weeks": 1628,
    "\u0120increases": 1629,
    "itis": 1630,
    "\u0120morph": 1631,
    "tosis": 1632,
    "\u0120therefore": 1633,
    "\u0120prevalence": 1634,
    "\u0120functions": 1635,
    "\u0120few": 1636,
    "\u0120evaluated": 1637,
    "odes": 1638,
    "\u0120terms": 1639,
    "\u0120load": 1640,
    "\u0120HIV": 1641,
    "\u0120criteria": 1642,
    "\u0120resulting": 1643,
    "\u0120patterns": 1644,
    "\u0120ax": 1645,
    "\u0120Pati": 1646,
    "\u0120power": 1647,
    "\u0120report": 1648,
    "\u0120literature": 1649,
    "way": 1650,
    "\u0120play": 1651,
    ");": 1652,
    "\u0120ST": 1653,
    "\u0120mem": 1654,
    "\u0120tox": 1655,
    "\u0120Ab": 1656,
    "\u0120combination": 1657,
    "\u0120Moreover": 1658,
    "rich": 1659,
    "\u0120processes": 1660,
    "trans": 1661,
    "\u0120structures": 1662,
    "\u0120limit": 1663,
    "\u0120intra": 1664,
    "--": 1665,
    "\u0120experiment": 1666,
    "\u0120cellular": 1667,
    "\u0120plac": 1668,
    "\u0120events": 1669,
    "sh": 1670,
    "\u0120success": 1671,
    "ulating": 1672,
    "\u0120versus": 1673,
    "\u0120log": 1674,
    "\u0120regression": 1675,
    "\u0120q": 1676,
    "\u0120toward": 1677,
    "\u0120activities": 1678,
    "order": 1679,
    "\u0120seen": 1680,
    "\u0120since": 1681,
    "URE": 1682,
    "\u0120sil": 1683,
    "\u0120inflammatory": 1684,
    "\u0120good": 1685,
    "\u0120scale": 1686,
    "tation": 1687,
    "\u0120tests": 1688,
    "ining": 1689,
    "\u0120measures": 1690,
    "\u0120mig": 1691,
    "....": 1692,
    "\u0120task": 1693,
    "go": 1694,
    "be": 1695,
    "\u0120ve": 1696,
    "mediated": 1697,
    "\u0120components": 1698,
    "\u0120testing": 1699,
    "\u0120controls": 1700,
    "\u0120compounds": 1701,
    "\u0120heart": 1702,
    "oding": 1703,
    "\u0120help": 1704,
    "\u0120baseline": 1705,
    "\u0120proliferation": 1706,
    "\u0120employ": 1707,
    "gical": 1708,
    "\u0120glucose": 1709,
    "\u0120community": 1710,
    "\u0120points": 1711,
    "LC": 1712,
    "\u0120inflammation": 1713,
    "\u0120Inc": 1714,
    "\u0120consistent": 1715,
    "\u0120matrix": 1716,
    "\u0120mutations": 1717,
    "\u0120CA": 1718,
    "met": 1719,
    "\u0120animals": 1720,
    "\u0120along": 1721,
    "\u0120fix": 1722,
    "\u0120aim": 1723,
    "\u0120Sp": 1724,
    "\u0120poly": 1725,
    "\u0120measurements": 1726,
    "\u0120FIGURE": 1727,
    "ify": 1728,
    "\u0120reduce": 1729,
    "emia": 1730,
    "\u0120caused": 1731,
    "iat": 1732,
    "\u0120go": 1733,
    "\u0120syndrome": 1734,
    "\u0120healthy": 1735,
    "\u0120rest": 1736,
    "pose": 1737,
    "\u0120critical": 1738,
    "\u0120progn": 1739,
    "\u0120antibodies": 1740,
    "ney": 1741,
    "\u0120confirmed": 1742,
    "treated": 1743,
    "\u0120air": 1744,
    "\u0120stem": 1745,
    "\u0120damage": 1746,
    "\u0120her": 1747,
    "\u0120adults": 1748,
    "\u0120selection": 1749,
    "\u0120apoptosis": 1750,
    "\u0120statistical": 1751,
    "aged": 1752,
    "\u0120synthesis": 1753,
    "\u0120subst": 1754,
    "\u0120investigated": 1755,
    "\u0120view": 1756,
    "\u0120gas": 1757,
    "time": 1758,
    "\u0120intro": 1759,
    "\u0120application": 1760,
    "ES": 1761,
    "\u0120neurons": 1762,
    "ings": 1763,
    "This": 1764,
    "\u0120Cor": 1765,
    "\u0120rapid": 1766,
    "\u0120prevent": 1767,
    "\u0120open": 1768,
    "\u0120cognitive": 1769,
    "function": 1770,
    "ck": 1771,
    "\u0120improved": 1772,
    "\u0120fit": 1773,
    "ground": 1774,
    "\u0120Ag": 1775,
    "aling": 1776,
    "omal": 1777,
    "\u0120suggested": 1778,
    "\u0120systematic": 1779,
    "\u0120cohort": 1780,
    "\u0120rats": 1781,
    "\u0120affect": 1782,
    "DNA": 1783,
    "\u0120generated": 1784,
    "regulated": 1785,
    "\u0120much": 1786,
    "\u0120intensity": 1787,
    "\u0120Disc": 1788,
    "\u0120software": 1789,
    "\u0120access": 1790,
    "\u0120secondary": 1791,
    "\u0120bacterial": 1792,
    "\u0120setting": 1793,
    "\u0120Col": 1794,
    "\u0120poor": 1795,
    "\u0120expected": 1796,
    "\u0120reference": 1797,
    "\u0120colon": 1798,
    "//": 1799,
    "tension": 1800,
    "\u0120wild": 1801,
    "\u0120When": 1802,
    "\u0120cycle": 1803,
    "\u0120molecules": 1804,
    "\u0120One": 1805,
    "tle": 1806,
    "au": 1807,
    "\u0120metabolism": 1808,
    "\u0120progression": 1809,
    "\u0120mid": 1810,
    "\u0120Mod": 1811,
    "ories": 1812,
    "\u0120received": 1813,
    "\u0120directly": 1814,
    "\u0120Trans": 1815,
    "\u0120combined": 1816,
    "\u0120release": 1817,
    "\u0120drugs": 1818,
    "\u0120tumors": 1819,
    "\u0120essential": 1820,
    "\u0120practice": 1821,
    "://": 1822,
    "\u0120showing": 1823,
    "\u0120final": 1824,
    "\u0120isolated": 1825,
    "CG": 1826,
    "\u0120strains": 1827,
    "\u0120side": 1828,
    "\u0120maximum": 1829,
    "RNAs": 1830,
    "\u0120spectr": 1831,
    "\u0120evolution": 1832,
    "\u0120especially": 1833,
    "\u0120PCR": 1834,
    "\u0120yield": 1835,
    "\u0120although": 1836,
    "\u0120require": 1837,
    "\u0120complete": 1838,
    "\u0120skin": 1839,
    "\u0120Effect": 1840,
    "\u0120estimated": 1841,
    "CoV": 1842,
    "\u0120procedure": 1843,
    "ton": 1844,
    "\u0120examined": 1845,
    "\u0120chemical": 1846,
    "\u0120cent": 1847,
    "\u0120another": 1848,
    "\u0120measurement": 1849,
    "\u0120clear": 1850,
    "ious": 1851,
    "ARS": 1852,
    "\u0120Not": 1853,
    "\u0120exist": 1854,
    "\u0120experience": 1855,
    "\u0120inst": 1856,
    "\u0120accuracy": 1857,
    "\u0120linear": 1858,
    "\u0120male": 1859,
    "\u0120affected": 1860,
    "\u0120Des": 1861,
    "ocal": 1862,
    "%),": 1863,
    "\u0120plants": 1864,
    "\u0120strategies": 1865,
    "\u0120With": 1866,
    "year": 1867,
    "\u0120indicating": 1868,
    "\u0120screening": 1869,
    "ream": 1870,
    "\u0120efficacy": 1871,
    "\u0120plate": 1872,
    "\u0120six": 1873,
    "\u0120full": 1874,
    "ocyte": 1875,
    "\u0120China": 1876,
    "\u0120larger": 1877,
    "\u0120Na": 1878,
    "\u0120layer": 1879,
    "\u0120products": 1880,
    "\u0120Per": 1881,
    "As": 1882,
    "otor": 1883,
    "\u0120students": 1884,
    "\u0120highest": 1885,
    "\u0120natural": 1886,
    "NT": 1887,
    "\u0120incubated": 1888,
    "\u0120countries": 1889,
    "\u0120carbon": 1890,
    "\u0120studied": 1891,
    "\u0120whole": 1892,
    "\u0120home": 1893,
    "\u0120Ne": 1894,
    "\u0120materials": 1895,
    "\u0120context": 1896,
    "SS": 1897,
    "normal": 1898,
    "\u0120ER": 1899,
    "\u0120oxygen": 1900,
    "vari": 1901,
    "uss": 1902,
    "\u0120history": 1903,
    "\u0120pan": 1904,
    "hood": 1905,
    "rosis": 1906,
    "\u0120disorders": 1907,
    "\u0120variation": 1908,
    "IR": 1909,
    "for": 1910,
    "\u0120Inf": 1911,
    "\u0120source": 1912,
    "\u0120Ig": 1913,
    "\u0120:": 1914,
    "\u0120decision": 1915,
    "\u0120best": 1916,
    "izes": 1917,
    "\u0120carried": 1918,
    "\u0120amino": 1919,
    "\u0120viral": 1920,
    "\u0120she": 1921,
    "PCR": 1922,
    "osome": 1923,
    "ame": 1924,
    "\u0120MD": 1925,
    "\u0120indicates": 1926,
    "oids": 1927,
    "\u0120bacteria": 1928,
    "\u0120around": 1929,
    "\u0120exp": 1930,
    "\u0120like": 1931,
    "\u0120spe": 1932,
    "\u0120processing": 1933,
    "\u0120profil": 1934,
    "\u0120relevant": 1935,
    "\u0120markers": 1936,
    "\u0120structural": 1937,
    "\u0120leading": 1938,
    "bers": 1939,
    "\u0120head": 1940,
    "\u0120elev": 1941,
    "\u0120lipid": 1942,
    "\u0120host": 1943,
    "\u0120star": 1944,
    "\u0120Inter": 1945,
    "\u0120meta": 1946,
    "\u0120upon": 1947,
    "\u0120cut": 1948,
    "\u0120adult": 1949,
    "\u0120insulin": 1950,
    "\u0120female": 1951,
    "\u0120central": 1952,
    "inated": 1953,
    "otypes": 1954,
    "\u0120suggesting": 1955,
    "\u0120staining": 1956,
    "\u0120Is": 1957,
    "\u0120paper": 1958,
    "\u0120cost": 1959,
    "\u0120global": 1960,
    "\u0120evaluate": 1961,
    "\u0120cardiac": 1962,
    "\u0120SARS": 1963,
    "\u0120failure": 1964,
    "\u0120dos": 1965,
    "\u0120animal": 1966,
    "\u0120difficult": 1967,
    "associated": 1968,
    "ochemical": 1969,
    "\u0120place": 1970,
    "\u0120relatively": 1971,
    "isms": 1972,
    "tered": 1973,
    "ching": 1974,
    "\u0120composition": 1975,
    "\u0120capacity": 1976,
    "SCs": 1977,
    "\u0120bound": 1978,
    "iatric": 1979,
    "\u0120version": 1980,
    "\u0120duration": 1981,
    "\u0120derived": 1982,
    "\u0120understanding": 1983,
    "\u0120statistically": 1984,
    "\u0120mental": 1985,
    "position": 1986,
    "ending": 1987,
    "\u0120older": 1988,
    "\u0120situ": 1989,
    "\u0120mitochondrial": 1990,
    "\u0120por": 1991,
    "\u0120significance": 1992,
    "\u0120supplement": 1993,
    "\u0120polymer": 1994,
    "\u0120inhibitor": 1995,
    "\u0120thick": 1996,
    "ct": 1997,
    "\u0120every": 1998,
    "\u0120kinase": 1999,
    "org": 2000,
    "\u0120survey": 2001,
    "\u0120Clinical": 2002,
    "\u0120needed": 2003,
    "\u0120action": 2004,
    "hydro": 2005,
    "\u0120strength": 2006,
    "\u0120Effects": 2007,
    "\u0120PA": 2008,
    "\u0120protocol": 2009,
    "\u0120strategy": 2010,
    "less": 2011,
    "\u0120though": 2012,
    "\u0120surgical": 2013,
    "\u0120variable": 2014,
    "\u0120infections": 2015,
    "\u0120oral": 2016,
    "\u0120detect": 2017,
    "\u0120Sub": 2018,
    "\u0120taken": 2019,
    "\u0120stability": 2020,
    "iotic": 2021,
    "\u0120efficiency": 2022,
    "\u0120classification": 2023,
    "\u0120mutant": 2024,
    "\u0120seed": 2025,
    "\u0120delivery": 2026,
    "\u0120bur": 2027,
    "\u0120enzyme": 2028,
    "\u0120published": 2029,
    "\u0120percentage": 2030,
    "\u0120Fe": 2031,
    "\u0120suggests": 2032,
    "\u0120depression": 2033,
    "\u0120address": 2034,
    "\u0120education": 2035,
    "\u0120receptors": 2036,
    "\u0120algorithm": 2037,
    "\u0120enhance": 2038,
    "\u0120recorded": 2039,
    "\u0120display": 2040,
    "osomes": 2041,
    "\u0120Mul": 2042,
    "\u0120Discussion": 2043,
    "\u0120suppress": 2044,
    "\u0120mes": 2045,
    "\u0120administration": 2046,
    "\u0120mutation": 2047,
    "imer": 2048,
    "alk": 2049,
    "\u0120ion": 2050,
    "\u0120necessary": 2051,
    "\u0120sequencing": 2052,
    "\u0120internal": 2053,
    "\u0120hal": 2054,
    "\u0120prepared": 2055,
    "\u0120tool": 2056,
    "\u0120represents": 2057,
    "\u0120error": 2058,
    "\u0120dynamics": 2059,
    "\u0120clin": 2060,
    "xi": 2061,
    "fold": 2062,
    "\u0120CH": 2063,
    "gi": 2064,
    "\u0120buffer": 2065,
    "\u0120aff": 2066,
    "\u0120section": 2067,
    "ging": 2068,
    "\u0120must": 2069,
    "\u0120stimulation": 2070,
    "\u0120approximately": 2071,
    "\u0120problem": 2072,
    "state": 2073,
    "\u0120provides": 2074,
    "\u0120respiratory": 2075,
    "\u0120importance": 2076,
    "\u0120memory": 2077,
    "\u0120approaches": 2078,
    "\u0120having": 2079,
    "\u0120proportion": 2080,
    "\u0120AP": 2081,
    "\u0120Patients": 2082,
    "\u0120endot": 2083,
    "\u0120devi": 2084,
    "\u0120predicted": 2085,
    "\u0120here": 2086,
    "ologies": 2087,
    "\u0120prediction": 2088,
    "\u0120identification": 2089,
    "\u0120respond": 2090,
    "\u0120transport": 2091,
    "\u0120vascular": 2092,
    "\u0120enhanced": 2093,
    "\u0120last": 2094,
    "encies": 2095,
    "\u0120regarding": 2096,
    "oking": 2097,
    "\u0120way": 2098,
    "off": 2099,
    "\u0120hours": 2100,
    "\u0120certain": 2101,
    "\u0120rather": 2102,
    "\u0120continuous": 2103,
    "down": 2104,
    "\u0120threshold": 2105,
    "\u0120inhibitors": 2106,
    "\u0120correlated": 2107,
    "\u0120fraction": 2108,
    "\u0120Pol": 2109,
    "\u0120exercise": 2110,
    "\u0120diagnostic": 2111,
    "\u0120interventions": 2112,
    "\u0120technique": 2113,
    "\u0120safety": 2114,
    "\u0120renal": 2115,
    "\u0120Conclusion": 2116,
    "pha": 2117,
    "ologic": 2118,
    "\u0120networks": 2119,
    "\u0120PP": 2120,
    "ects": 2121,
    "\u0120call": 2122,
    "obacter": 2123,
    "\u0120what": 2124,
    "anti": 2125,
    "\u0120space": 2126,
    "\u0120component": 2127,
    "ash": 2128,
    "\u0120carcinoma": 2129,
    "\u0120degree": 2130,
    "\u0120particularly": 2131,
    "\u0120alter": 2132,
    "\u0120lesions": 2133,
    "\u0120contact": 2134,
    "\u0120treatments": 2135,
    "\u0120cult": 2136,
    "day": 2137,
    "\u0120median": 2138,
    "\u0120Analysis": 2139,
    "land": 2140,
    "regulation": 2141,
    "\u0120distinct": 2142,
    "\u0120techniques": 2143,
    "\u0120PC": 2144,
    "\u0120applications": 2145,
    "\u0120states": 2146,
    "\u0120appropriate": 2147,
    "\u0120nuclear": 2148,
    "\u0120series": 2149,
    "cription": 2150,
    "\u0120bir": 2151,
    "akes": 2152,
    "\u0120pandemic": 2153,
    "\u0120transmission": 2154,
    "\u0120University": 2155,
    "uter": 2156,
    "\u0120soil": 2157,
    "\u0120If": 2158,
    "\u0120Spec": 2159,
    "\u0120Study": 2160,
    "\u0120Similar": 2161,
    "derived": 2162,
    "\u0120fluorescence": 2163,
    "\u0120reason": 2164,
    "\u0120Tr": 2165,
    "\u0120regard": 2166,
    "\u0120successful": 2167,
    "sis": 2168,
    "\u0120peptide": 2169,
    "\u0120ear": 2170,
    "\u0120daily": 2171,
    "\u0120established": 2172,
    "\u0120While": 2173,
    "\u0120neural": 2174,
    "inflammatory": 2175,
    "\u0120input": 2176,
    "\u0120Over": 2177,
    "\u0120profile": 2178,
    "\u0120vaccine": 2179,
    "wide": 2180,
    "rem": 2181,
    "\u0120wa": 2182,
    "\u0120MS": 2183,
    "\u0120make": 2184,
    "\u0120transition": 2185,
    "\u0120causes": 2186,
    "\u0120bias": 2187,
    "\u0120services": 2188,
    "\u0120signals": 2189,
    "ternal": 2190,
    "\u0120room": 2191,
    "\u0120Finally": 2192,
    "\u0120refer": 2193,
    "\u0120stable": 2194,
    "\u0120Or": 2195,
    "free": 2196,
    "apping": 2197,
    "itude": 2198,
    "\u0120oxidative": 2199,
    "\u0120sleep": 2200,
    "\u0120RT": 2201,
    "\u0120basis": 2202,
    "\u0120controlled": 2203,
    "\u0120degradation": 2204,
    "\u0120collection": 2205,
    "\u0120plot": 2206,
    "\u0120curve": 2207,
    "\u0120alone": 2208,
    "\u0120world": 2209,
    "GA": 2210,
    "\u0120den": 2211,
    "\u0120database": 2212,
    "\u0120feed": 2213,
    "\u0120remains": 2214,
    "yst": 2215,
    "ometry": 2216,
    "elling": 2217,
    "mic": 2218,
    "aring": 2219,
    "\u0120Anti": 2220,
    "\u0120until": 2221,
    "\u0120particles": 2222,
    "\u0120complications": 2223,
    "analysis": 2224,
    "\u0120vector": 2225,
    "\u0120spatial": 2226,
    "\u0120leads": 2227,
    "\u0120see": 2228,
    "\u0120numbers": 2229,
    "\u0120Sec": 2230,
    "\u0120heat": 2231,
    "\u0120obtain": 2232,
    "\u0120resulted": 2233,
    "\u0120constant": 2234,
    "\u0120They": 2235,
    "EP": 2236,
    "\u0120variants": 2237,
    "\u0120extract": 2238,
    "\u0120electron": 2239,
    "\u0120impair": 2240,
    "bre": 2241,
    "\u0120fin": 2242,
    "\u0120System": 2243,
    "\u0120problems": 2244,
    "most": 2245,
    "\u0120PT": 2246,
    "ameter": 2247,
    "\u0120fixed": 2248,
    "etic": 2249,
    "\u0120improvement": 2250,
    "\u0120las": 2251,
    "\u0120product": 2252,
    "\u0120migration": 2253,
    "\u0120slight": 2254,
    "\u0120kidney": 2255,
    "\u0120reports": 2256,
    "\u0120mixed": 2257,
    "\u0120magnetic": 2258,
    "arily": 2259,
    "ibility": 2260,
    "\u0120Aut": 2261,
    "\u0120Using": 2262,
    "ingly": 2263,
    "\u0120abnormal": 2264,
    "\u0120media": 2265,
    "\u0120targets": 2266,
    "\u0120avoid": 2267,
    "\u0120guidelines": 2268,
    "\u0120fund": 2269,
    "\u0120attention": 2270,
    "\u0120search": 2271,
    "\u0120injection": 2272,
    "\u0120CR": 2273,
    "\u0120consumption": 2274,
    "\u0120IF": 2275,
    "\u0120cardiovascular": 2276,
    "\u0120First": 2277,
    "\u0120extracted": 2278,
    "ded": 2279,
    "\u0120broad": 2280,
    "aries": 2281,
    "\u0120course": 2282,
    "sia": 2283,
    "sized": 2284,
    "\u0120procedures": 2285,
    "\u0120phosphorylation": 2286,
    "\u0120dysfunction": 2287,
    "\u0120discuss": 2288,
    "\u0120contribute": 2289,
    "\u0120cannot": 2290,
    "\u0120Two": 2291,
    "\u0120core": 2292,
    "\u0120AT": 2293,
    "\u0120WT": 2294,
    "\u0120later": 2295,
    "\u0120spectra": 2296,
    "\u0120members": 2297,
    "atives": 2298,
    "\u0120subsequent": 2299,
    "\u0120Europe": 2300,
    "\u0120High": 2301,
    "\u0120severity": 2302,
    "orn": 2303,
    "inate": 2304,
    "].": 2305,
    "\u0120Rel": 2306,
    "\u0120substrate": 2307,
    "\u0120diversity": 2308,
    "ycin": 2309,
    "\u0120feature": 2310,
    "\u0120confirm": 2311,
    "\u0120HP": 2312,
    "\u0120generation": 2313,
    "IS": 2314,
    "\u0120agents": 2315,
    "\u0120monitoring": 2316,
    "NPs": 2317,
    "\u0120young": 2318,
    "\u0120induce": 2319,
    "omas": 2320,
    "\u0120SP": 2321,
    "\u0120New": 2322,
    "\u0120induction": 2323,
    "\u0120run": 2324,
    "take": 2325,
    "\u0120accumulation": 2326,
    "\u0120disorder": 2327,
    "\u0120spectrum": 2328,
    "\u0120Research": 2329,
    "\u0120antigen": 2330,
    "\u0120next": 2331,
    "\u0120third": 2332,
    "\u0120chain": 2333,
    "\u0120event": 2334,
    "\u0120wall": 2335,
    "\u0120mob": 2336,
    "\u0120green": 2337,
    "bral": 2338,
    "\u0120mamm": 2339,
    "\u0120Since": 2340,
    "\u0120account": 2341,
    "etal": 2342,
    "\u0120designed": 2343,
    "\u0120achieved": 2344,
    "\u0120others": 2345,
    "\u0120pack": 2346,
    "use": 2347,
    "osomal": 2348,
    "\u0120epithelial": 2349,
    "\u0120dataset": 2350,
    "\u0120obesity": 2351,
    "\u0120special": 2352,
    "\u0120**": 2353,
    "wise": 2354,
    "\u0120double": 2355,
    "positive": 2356,
    "\u0120needs": 2357,
    "\u0120useful": 2358,
    "\u0120probability": 2359,
    "\u0120mechanical": 2360,
    "\u0120find": 2361,
    "\u0120elements": 2362,
    "\u0120turn": 2363,
    "\u0120quantitative": 2364,
    "\u0120endothelial": 2365,
    "\u0120chlor": 2366,
    "\u0120pregnancy": 2367,
    "\u0120recommend": 2368,
    "\u0120nature": 2369,
    "\u0120his": 2370,
    "\u0120recovery": 2371,
    "\u0120Ser": 2372,
    "\u0120stages": 2373,
    "\u0120extraction": 2374,
    "\u0120CS": 2375,
    "\u0120profession": 2376,
    "back": 2377,
    "\u0120promote": 2378,
    "\u0120Human": 2379,
    "\u0120force": 2380,
    "\u0120segment": 2381,
    "plantation": 2382,
    "\u0120Af": 2383,
    "\u0120gel": 2384,
    "\u0120exposed": 2385,
    "\u0120parameter": 2386,
    "oster": 2387,
    "\u0120cluster": 2388,
    "\u0120located": 2389,
    "\u0120stroke": 2390,
    "\u0120fluid": 2391,
    "\u0120adverse": 2392,
    "\u0120NF": 2393,
    "\u0120Germ": 2394,
    "\u0120regulatory": 2395,
    "\u0120rare": 2396,
    "\u0120assays": 2397,
    "iving": 2398,
    "\u0120original": 2399,
    "\u0120developing": 2400,
    "\u0120modified": 2401,
    "\u0120),": 2402,
    "\u0120recently": 2403,
    "\u0120check": 2404,
    "\u0120limitations": 2405,
    "\u0120upper": 2406,
    "\u0120muc": 2407,
    "\u0120prop": 2408,
    "\u0120person": 2409,
    "\u0120half": 2410,
    "\u0120simple": 2411,
    "\u0120residues": 2412,
    "\u0120macrophages": 2413,
    "\u0120nanoparticles": 2414,
    "\u0120laboratory": 2415,
    "\u0120band": 2416,
    "\u0120motor": 2417,
    "\u0120activated": 2418,
    "vision": 2419,
    "\u0120OR": 2420,
    "mod": 2421,
    "\u0120underlying": 2422,
    "HC": 2423,
    "\u0120marker": 2424,
    "\u0120noted": 2425,
    "\u0120deep": 2426,
    "\u0120profiles": 2427,
    "\u0120solid": 2428,
    "\u0120From": 2429,
    "\u0120domains": 2430,
    "\u0120elevated": 2431,
    "\u0120conclusion": 2432,
    "\u0120examination": 2433,
    "\u0120framework": 2434,
    "\u0120gender": 2435,
    "\u0120alternative": 2436,
    "\u0120oil": 2437,
    "point": 2438,
    "\u0120squ": 2439,
    "\u0120far": 2440,
    "\u0120ful": 2441,
    "\u0120majority": 2442,
    "\u0120anxiety": 2443,
    "\u0120Additionally": 2444,
    "\u0120online": 2445,
    "\u0120cre": 2446,
    "\u0120optimal": 2447,
    "\u0120location": 2448,
    "\u0120targeting": 2449,
    "\u0120article": 2450,
    "\u0120slow": 2451,
    "\u0120towards": 2452,
    "\u0120inn": 2453,
    "\u0120coli": 2454,
    "\u0120weak": 2455,
    "\u0120Based": 2456,
    "try": 2457,
    "\u0120interview": 2458,
    "\u0120relationships": 2459,
    "\u0120advanced": 2460,
    "\u0120bal": 2461,
    "\u0120forms": 2462,
    "\u0120%": 2463,
    "\u0120unit": 2464,
    "\u0120approved": 2465,
    "\u0120phenotype": 2466,
    "\u0120PR": 2467,
    "onia": 2468,
    "bs": 2469,
    "\u0120chemotherapy": 2470,
    "\u0120unique": 2471,
    "\u0120root": 2472,
    "\u0120technology": 2473,
    "However": 2474,
    "\u0120sampling": 2475,
    "\u0120blot": 2476,
    "organ": 2477,
    "level": 2478,
    "\u0120usually": 2479,
    "\u0120theory": 2480,
    "\u0120exten": 2481,
    "\u0120physiological": 2482,
    "\u0120bind": 2483,
    "\u0120become": 2484,
    "\u0120mode": 2485,
    "\u0120alcohol": 2486,
    "\u0120polar": 2487,
    "\u0120blue": 2488,
    "\u0120potentially": 2489,
    "\u0120delay": 2490,
    "\u0120Sm": 2491,
    "\u0120knock": 2492,
    "\u0120uptake": 2493,
    "\u0120white": 2494,
    "\u0120moderate": 2495,
    "\u0120Id": 2496,
    "\u0120placed": 2497,
    "\u0120generally": 2498,
    "\u0120Japan": 2499,
    "isation": 2500,
    "\u0120consent": 2501,
    "\u0120reducing": 2502,
    "oot": 2503,
    "\u0120removed": 2504,
    "\u0120mil": 2505,
    "\u0120graph": 2506,
    "known": 2507,
    "atitis": 2508,
    "\u0120close": 2509,
    "\u0120calcium": 2510,
    "\u0120metal": 2511,
    "\u0120Dr": 2512,
    "\u0120thickness": 2513,
    "\u0120color": 2514,
    "\u0120prevention": 2515,
    "\u0120onset": 2516,
    "\u0120curves": 2517,
    "\u0120TNF": 2518,
    "\u0120promoter": 2519,
    "\u0120optical": 2520,
    "\u0120hypothesis": 2521,
    "\u0120dimension": 2522,
    "\u0120channel": 2523,
    "\u0120PI": 2524,
    "\u0120smaller": 2525,
    "GFR": 2526,
    "\u0120bond": 2527,
    "\u0120exhibited": 2528,
    "\u0120sources": 2529,
    "EN": 2530,
    "ritis": 2531,
    "\u0120III": 2532,
    "\u0120fatty": 2533,
    "\u0120enzymes": 2534,
    "\u0120pig": 2535,
    "\u0120imm": 2536,
    "\u0120repair": 2537,
    "\u0120radiation": 2538,
    "\u0120dynamic": 2539,
    "\u0120bio": 2540,
    "\u0120humans": 2541,
    "\u0120sensor": 2542,
    "\u0120har": 2543,
    "\u0120PBS": 2544,
    "\u0120external": 2545,
    "angu": 2546,
    "\u0120now": 2547,
    "\u0120transform": 2548,
    "\u0120fast": 2549,
    "rence": 2550,
    "\u0120incorpor": 2551,
    "\u0120questions": 2552,
    "\u0120peripheral": 2553,
    "\u0120candid": 2554,
    "\u0120formed": 2555,
    "\u0120induces": 2556,
    "\u0120Cancer": 2557,
    "\u0120specificity": 2558,
    "otide": 2559,
    "tag": 2560,
    "\u0120genomic": 2561,
    "otal": 2562,
    "\u0120Par": 2563,
    "\u0120roles": 2564,
    "\u0120diameter": 2565,
    "\u0120IV": 2566,
    "\u0120mixture": 2567,
    "HA": 2568,
    "gin": 2569,
    "ises": 2570,
    "ured": 2571,
    "\u0120occurs": 2572,
    "\u0120ter": 2573,
    "\u0120intestinal": 2574,
    "\u0120treat": 2575,
    "\u0120sections": 2576,
    "\u0120mill": 2577,
    "omics": 2578,
    "\u0120Non": 2579,
    "\u0120entire": 2580,
    "\u0120MRI": 2581,
    "\u0120demonstrate": 2582,
    "\u0120resources": 2583,
    "\u0120Protein": 2584,
    "well": 2585,
    "\u0120laser": 2586,
    "\u0120Among": 2587,
    "zing": 2588,
    "\u0120device": 2589,
    ":...,": 2590,
    "lim": 2591,
    "\u0120occurred": 2592,
    "going": 2593,
    "\u0120enter": 2594,
    "\u0120preparation": 2595,
    "\u0120fully": 2596,
    "\u0120panel": 2597,
    "tile": 2598,
    "\u0120Cells": 2599,
    "\u0120output": 2600,
    "\u0120pass": 2601,
    "\u0120arch": 2602,
    "\u0120direction": 2603,
    "uting": 2604,
    "\u0120randomized": 2605,
    "aching": 2606,
    "\u0120estimate": 2607,
    "\u0120working": 2608,
    "\u0120coefficient": 2609,
    "\u0120items": 2610,
    "\u0120led": 2611,
    "\u0120promotes": 2612,
    "\u0120Ep": 2613,
    "phosph": 2614,
    "\u0120repeated": 2615,
    "\u0120intracellular": 2616,
    "\u0120validation": 2617,
    "\u0120land": 2618,
    "\u0120requires": 2619,
    "\u0120fusion": 2620,
    "\u0120simulation": 2621,
    "genic": 2622,
    "\u0120leuk": 2623,
    "\u0120MA": 2624,
    "\u0120sulf": 2625,
    "tration": 2626,
    "\u0120strongly": 2627,
    "\u0120Each": 2628,
    "\u0120background": 2629,
    "\u0120metastasis": 2630,
    "\u0120school": 2631,
    "urs": 2632,
    "load": 2633,
    "\u0120By": 2634,
    "\u0120resolution": 2635,
    "alc": 2636,
    "\u0120manuscript": 2637,
    "\u0120AC": 2638,
    "went": 2639,
    "side": 2640,
    "\u0120extent": 2641,
    "\u0120cortex": 2642,
    "\u0120artery": 2643,
    "\u0120observation": 2644,
    "\u0120past": 2645,
    "\u0120hybrid": 2646,
    "\u0120recognition": 2647,
    "link": 2648,
    "\u0120Of": 2649,
    "\u0120liquid": 2650,
    "dimensional": 2651,
    "\u0120cytokines": 2652,
    "\u0120prognosis": 2653,
    "\u0120Western": 2654,
    "\u0120hypertension": 2655,
    "\u0120estimates": 2656,
    "\u0120ED": 2657,
    "\u0120TAB": 2658,
    "ways": 2659,
    "\u0120females": 2660,
    "\u0120flex": 2661,
    "\u0120confidence": 2662,
    "\u0120almost": 2663,
    "\u0120base": 2664,
    "\u0120relation": 2665,
    "\u0120origin": 2666,
    "\u0120TB": 2667,
    "\u0120linked": 2668,
    "\u0120pen": 2669,
    "\u0120ensure": 2670,
    "\u0120shape": 2671,
    "\u0120speed": 2672,
    "\u0120leg": 2673,
    "\u0120cultured": 2674,
    "\u0120AR": 2675,
    "\u0120Val": 2676,
    "\u0120ATP": 2677,
    "ided": 2678,
    "\u0120accept": 2679,
    "\u0120near": 2680,
    "\u0120gr": 2681,
    "binding": 2682,
    "\u0120TABLE": 2683,
    "\u0120concept": 2684,
    "\u0120complexes": 2685,
    "ergic": 2686,
    "\u0120thermal": 2687,
    "ening": 2688,
    "\u0120behaviour": 2689,
    "\u0120LD": 2690,
    "\u0120nerve": 2691,
    "\u0120targeted": 2692,
    "LP": 2693,
    "\u0120platform": 2694,
    "ready": 2695,
    "\u0120CF": 2696,
    "\u0120Sign": 2697,
    "\u0120associations": 2698,
    "\u0120emission": 2699,
    "\u0120iron": 2700,
    "\u0120implementation": 2701,
    "\u0120late": 2702,
    "Vs": 2703,
    "\u0120aged": 2704,
    "\u0120During": 2705,
    "\u0120compare": 2706,
    "\u0120gut": 2707,
    "\u0120Multi": 2708,
    "\u0120sodium": 2709,
    "\u0120challenges": 2710,
    "\u0120allows": 2711,
    "\u0120specifically": 2712,
    "\u0120team": 2713,
    "\u0120Ob": 2714,
    "\u0120fig": 2715,
    "\u0120spread": 2716,
    "\u0120birth": 2717,
    "\u0120take": 2718,
    "activity": 2719,
    "\u0120extracellular": 2720,
    "\u0120throughout": 2721,
    "\u0120respect": 2722,
    "quired": 2723,
    "\u0120observations": 2724,
    "vis": 2725,
    "ytes": 2726,
    "\u0120inclusion": 2727,
    "\u0120wide": 2728,
    "\u0120Some": 2729,
    "\u0120Supplementary": 2730,
    "\u0120clusters": 2731,
    "\u0120center": 2732,
    "iform": 2733,
    "\u0120Micro": 2734,
    "perm": 2735,
    "\u0120conventional": 2736,
    "\u0120sensitive": 2737,
    "\u0120subject": 2738,
    "\u0120living": 2739,
    "\u0120capture": 2740,
    "\u0120morphology": 2741,
    "\u0120already": 2742,
    "\u0120toxicity": 2743,
    "\u0120efficient": 2744,
    "\u0120microscopy": 2745,
    "\u0120wound": 2746,
    "\u0120DM": 2747,
    "\u0120differential": 2748,
    "rium": 2749,
    "\u0120National": 2750,
    "keletal": 2751,
    "obic": 2752,
    "\u0120regulates": 2753,
    "\u0120put": 2754,
    "\u0120washed": 2755,
    "opathy": 2756,
    "\u0120questionnaire": 2757,
    "\u0120Both": 2758,
    "\u0120aspects": 2759,
    "\u0120dietary": 2760,
    "\u0120discussion": 2761,
    "\u0120making": 2762,
    "\u0120frequently": 2763,
    "\u0120Red": 2764,
    "\u0120Molecular": 2765,
    "\u0120lateral": 2766,
    "\u0120Group": 2767,
    "\u0120own": 2768,
    "\u0120establish": 2769,
    "\u0120variance": 2770,
    "\u0120communication": 2771,
    "\u0120Zhang": 2772,
    "\u0120Then": 2773,
    "\u0120abundance": 2774,
    "\u0120comparing": 2775,
    "\u0120temporal": 2776,
    "\u0120movement": 2777,
    "\u0120bran": 2778,
    "\u0120isolates": 2779,
    "\u0120solutions": 2780,
    "\u0120males": 2781,
    "\u0120achieve": 2782,
    "\u0120absorption": 2783,
    "\u0120methylation": 2784,
    "\u0120effectiveness": 2785,
    "\u0120robust": 2786,
    "oxide": 2787,
    "ban": 2788,
    "\u0120United": 2789,
    "\u0120AB": 2790,
    "\u0120axis": 2791,
    "\u0120si": 2792,
    "\u0120peptides": 2793,
    "\u0120IgG": 2794,
    "\u0120synap": 2795,
    "\u0120PM": 2796,
    "\u0120correct": 2797,
    "\u0120US": 2798,
    "\u0120includes": 2799,
    "\u0120involvement": 2800,
    "\u0120Other": 2801,
    "\u0120variability": 2802,
    "\u0120joint": 2803,
    "\u0120smoking": 2804,
    "\u0120contain": 2805,
    "\u0120Expression": 2806,
    "ying": 2807,
    "\u0120session": 2808,
    "\u0120contains": 2809,
    "\u0120Man": 2810,
    "\u0120Neu": 2811,
    "\u0120slightly": 2812,
    "\u0120transcript": 2813,
    "\u0120mild": 2814,
    "\u0120equal": 2815,
    "\u0120sets": 2816,
    "\u0120word": 2817,
    "\u0120neuronal": 2818,
    "\u0120CP": 2819,
    "\u0120tools": 2820,
    "ads": 2821,
    "\u0120variety": 2822,
    "\u0120antioxidant": 2823,
    "ano": 2824,
    "\u0120ads": 2825,
    "\u0120burden": 2826,
    "\u0120crucial": 2827,
    "\u0120membranes": 2828,
    "\u0120HR": 2829,
    "\u0120benefit": 2830,
    "\u0120MR": 2831,
    "\u0120author": 2832,
    "\u0120steps": 2833,
    "\u0120inhibits": 2834,
    "\u0120costs": 2835,
    "\u0120prognostic": 2836,
    "gg": 2837,
    "For": 2838,
    "\u0120noise": 2839,
    "\u0120represented": 2840,
    "\u0120house": 2841,
    "\u0120Second": 2842,
    "\u0120mediated": 2843,
    "\u0120researchers": 2844,
    "\u0120ves": 2845,
    "\u0120IFN": 2846,
    "Sup": 2847,
    "\u0120vaccination": 2848,
    "ern": 2849,
    "\u0120Review": 2850,
    "\u0120centrifug": 2851,
    "ortic": 2852,
    "\u0120angle": 2853,
    ".)": 2854,
    "\u0120dry": 2855,
    "\u0120minimum": 2856,
    "\u0120agreement": 2857,
    "\u0120benefits": 2858,
    "\u0120issues": 2859,
    "\u0120anterior": 2860,
    "\u0120polymorph": 2861,
    "\u0120Sw": 2862,
    "\u0120little": 2863,
    "\u0120atom": 2864,
    "\u0120hydrogen": 2865,
    "\u0120mutants": 2866,
    "\u0120molecule": 2867,
    "\u0120eye": 2868,
    "\u0120manner": 2869,
    "\u0120infer": 2870,
    "\u0120generate": 2871,
    "\u0120stra": 2872,
    "\u0120discussed": 2873,
    "\u0120mother": 2874,
    "\u0120gastric": 2875,
    "\u0120recommended": 2876,
    "\u0120detailed": 2877,
    "ancing": 2878,
    "\u0120secretion": 2879,
    "ifications": 2880,
    "\u0120adjusted": 2881,
    "\u0120allowed": 2882,
    "\u0120replication": 2883,
    "\u0120channels": 2884,
    "\u0120Development": 2885,
    "\u0120cultures": 2886,
    "\u0120particle": 2887,
    "\u0120maternal": 2888,
    "\u0120invasion": 2889,
    "scale": 2890,
    "\u0120ROS": 2891,
    "\u0120providing": 2892,
    "\u0120date": 2893,
    "oral": 2894,
    "enge": 2895,
    "\u0120element": 2896,
    "oprotein": 2897,
    "illary": 2898,
    "\u0120availability": 2899,
    "\u0120psychological": 2900,
    "\u0120SEM": 2901,
    "Fs": 2902,
    "\u0120representative": 2903,
    "\u0120plays": 2904,
    "terminal": 2905,
    "\u0120postoperative": 2906,
    "\u0120nodes": 2907,
    "\u0120pool": 2908,
    "\u0120explained": 2909,
    "\u0120Chinese": 2910,
    "iness": 2911,
    "\u0120neutral": 2912,
    "\u0120Min": 2913,
    "\u0120RA": 2914,
    "\u0120rad": 2915,
    "\u0120biomarkers": 2916,
    "\u0120Association": 2917,
    "\u0120doses": 2918,
    "\u0120equi": 2919,
    "\u0120remaining": 2920,
    "\u0120possibility": 2921,
    "\u0120middle": 2922,
    "\u0120norm": 2923,
    "\u0120map": 2924,
    "It": 2925,
    "\u0120implications": 2926,
    "\u0120).": 2927,
    "\u0120clearly": 2928,
    "\u0120microbial": 2929,
    "\u0120PE": 2930,
    "\u0120vel": 2931,
    "\u0120localization": 2932,
    "pers": 2933,
    "\u0120Can": 2934,
    "\u0120medicine": 2935,
    "\u0120tet": 2936,
    "\u0120remain": 2937,
    "\u0120fibrosis": 2938,
    "east": 2939,
    "\u0120column": 2940,
    "mia": 2941,
    "\u0120Mon": 2942,
    "\u0120matter": 2943,
    "\u0120plan": 2944,
    "\u0120adhesion": 2945,
    "\u0120rib": 2946,
    "\u0120trend": 2947,
    "----": 2948,
    "\u0120BMI": 2949,
    "\u0120ca": 2950,
    "\u0120complement": 2951,
    "\u0120comprehensive": 2952,
    "Ad": 2953,
    "\u0120posterior": 2954,
    "\u0120Treatment": 2955,
    "\u0120fragment": 2956,
    "\u0120minutes": 2957,
    "\u0120currently": 2958,
    "\u0120national": 2959,
    "\u0120traditional": 2960,
    "\u0120categories": 2961,
    "control": 2962,
    "\u0120height": 2963,
    "\u0120Sever": 2964,
    "\u0120examine": 2965,
    "axis": 2966,
    "tage": 2967,
    "\u0120Dis": 2968,
    "\u0120motion": 2969,
    "\u0120prostate": 2970,
    "\u0120nor": 2971,
    "\u0120explain": 2972,
    "\u0120collagen": 2973,
    "\u0120HF": 2974,
    "\u0120equation": 2975,
    "\u0120regular": 2976,
    "\u0120transcriptional": 2977,
    "\u0120Another": 2978,
    "\u0120Quan": 2979,
    "\u0120reduces": 2980,
    "\u0120specimens": 2981,
    "\u0120lesion": 2982,
    "\u0120Medical": 2983,
    "\u0120involving": 2984,
    "\u0120explore": 2985,
    "\u0120inhibitory": 2986,
    "\u0120PS": 2987,
    "\u0120hard": 2988,
    "ped": 2989,
    "\u0120tax": 2990,
    "\u0120regulate": 2991,
    "\u0120service": 2992,
    "\u0120draw": 2993,
    "\u0120behaviors": 2994,
    "\u0120devices": 2995,
    "\u0120Because": 2996,
    "\u0120wind": 2997,
    "\u0120ID": 2998,
    "\u0120contribution": 2999,
    "\u0120accurate": 3000,
    "change": 3001,
    "\u0120characteristic": 3002,
    "\u0120manufacture": 3003,
    "\u0120document": 3004,
    "\u0120typical": 3005,
    "\u0120motif": 3006,
    "\u0120variant": 3007,
    "\u0120organization": 3008,
    "\u0120basic": 3009,
    "\u0120agent": 3010,
    "\u0120reflect": 3011,
    "\u0120settings": 3012,
    "\u0120stabil": 3013,
    "cles": 3014,
    "\u0120Most": 3015,
    "\u0120ann": 3016,
    ",...,": 3017,
    "\u0120distributed": 3018,
    "\u0120plastic": 3019,
    "lets": 3020,
    "\u0120administered": 3021,
    "\u0120cytoplasm": 3022,
    "\u0120metabolites": 3023,
    "pe": 3024,
    "\u0120details": 3025,
    "\u0120pancreatic": 3026,
    "GFP": 3027,
    "\u0120contained": 3028,
    "\u0120remained": 3029,
    "\u0120break": 3030,
    "hing": 3031,
    "\u0120month": 3032,
    "\u0120comparisons": 3033,
    "\u0120alpha": 3034,
    "mark": 3035,
    "\u0120existing": 3036,
    "\u0120stained": 3037,
    "\u0120seven": 3038,
    "\u0120methyl": 3039,
    "\u0120face": 3040,
    "\u0120Park": 3041,
    "\u0120impairment": 3042,
    "dis": 3043,
    "\u0120datasets": 3044,
    "\u0120discrim": 3045,
    "\u0120unknown": 3046,
    "\u0120Long": 3047,
    "\u0120normalized": 3048,
    "okine": 3049,
    "\u0120govern": 3050,
    "\u0120reverse": 3051,
    "\u0120despite": 3052,
    "These": 3053,
    "\u0120recruit": 3054,
    "\u0120displayed": 3055,
    "\u0120challenge": 3056,
    "\u0120vitamin": 3057,
    "\u0120hepatic": 3058,
    "\u0120economic": 3059,
    "\u0120except": 3060,
    "\u0120behavioral": 3061,
    "\u0120gain": 3062,
    "\u0120ground": 3063,
    "\u0120simultaneous": 3064,
    "\u0120shift": 3065,
    "\u0120European": 3066,
    "NN": 3067,
    "\u0120drop": 3068,
    "\u0120ligand": 3069,
    "\u0120decreases": 3070,
    "\u0120Similarly": 3071,
    "\u0120ratios": 3072,
    "\u0120tree": 3073,
    "\u0120UV": 3074,
    "\u0120comparable": 3075,
    "\u0120participant": 3076,
    "\u0120https": 3077,
    "\u0120affects": 3078,
    "\u0120perceived": 3079,
    "\u0120pap": 3080,
    "\u0120nitrogen": 3081,
    "\u0120Arab": 3082,
    "\u0120diffusion": 3083,
    "\u0120maintain": 3084,
    "\u0120balance": 3085,
    "\u0120diagram": 3086,
    "\u0120underwent": 3087,
    "\u0120inhibited": 3088,
    "There": 3089,
    "\u0120Hospital": 3090,
    "\u0120spinal": 3091,
    "\u0120States": 3092,
    "present": 3093,
    "ectomy": 3094,
    "\u0120earlier": 3095,
    "\u0120tumour": 3096,
    "\u0120heterogeneity": 3097,
    "\u0120list": 3098,
    "\u0120correlations": 3099,
    "\u0120track": 3100,
    "\u0120Control": 3101,
    "idine": 3102,
    "\u0120protection": 3103,
    "\u0120Conclusions": 3104,
    "\u0120meet": 3105,
    "\u0120beta": 3106,
    "\u0120MT": 3107,
    "\u0120objective": 3108,
    "\u0120viability": 3109,
    "value": 3110,
    "plan": 3111,
    "\u0120adolescents": 3112,
    "\u0120assembly": 3113,
    "with": 3114,
    "\u0120counter": 3115,
    "\u0120extracts": 3116,
    "\u0120microbiota": 3117,
    "\u0120plates": 3118,
    "\u0120overexpression": 3119,
    "?,": 3120,
    "\u0120probe": 3121,
    "\u0120admission": 3122,
    "\u0120note": 3123,
    "\u0120annot": 3124,
    "\u0120regulated": 3125,
    "\u0120eight": 3126,
    "orrh": 3127,
    "\u0120choice": 3128,
    "ery": 3129,
    "\u0120sizes": 3130,
    "\u0120scan": 3131,
    "\u0120medication": 3132,
    "\u0120cortical": 3133,
    "ogens": 3134,
    "Con": 3135,
    "\u0120Cr": 3136,
    "\u0120maintained": 3137,
    "\u0120Identification": 3138,
    "\u0120parents": 3139,
    "\u0120PL": 3140,
    "\u0120ble": 3141,
    "\u0120cholesterol": 3142,
    "\u0120UK": 3143,
    "\u0120acquired": 3144,
    "\u0120ANOVA": 3145,
    "\u0120aging": 3146,
    "\u0120MP": 3147,
    "\u0120receiving": 3148,
    "\u0120barrier": 3149,
    "\u0120Assess": 3150,
    "\u0120altered": 3151,
    "\u0120illness": 3152,
    "ervation": 3153,
    "ococcus": 3154,
    "\u0120tract": 3155,
    "\u0120viruses": 3156,
    "\u0120families": 3157,
    "\u0120completely": 3158,
    "\u0120exact": 3159,
    "\u0120practices": 3160,
    "\u0120fish": 3161,
    "heme": 3162,
    "\u0120categor": 3163,
    "\u0120thereby": 3164,
    "\u0120language": 3165,
    "\u0120immunity": 3166,
    "\u0120tolerance": 3167,
    "ada": 3168,
    "plate": 3169,
    "activation": 3170,
    "\u0120summary": 3171,
    "\u0120workers": 3172,
    "\u0120layers": 3173,
    "\u0120engine": 3174,
    "Es": 3175,
    "\u0120My": 3176,
    "\u0120progress": 3177,
    "\u0120leaf": 3178,
    "\u0120diverse": 3179,
    "\u0120oxide": 3180,
    "\u0120manufacturer": 3181,
    "\u0120presentation": 3182,
    "\u0120completed": 3183,
    "\u0120occurrence": 3184,
    "treatment": 3185,
    "\u0120pairs": 3186,
    "ament": 3187,
    "\u0120Bas": 3188,
    "\u0120programs": 3189,
    "\u0120CM": 3190,
    "\u0120reporting": 3191,
    "\u0120statistics": 3192,
    "\u0120recurrence": 3193,
    "\u0120integrated": 3194,
    "version": 3195,
    "\u0120diabetic": 3196,
    "\u0120once": 3197,
    "\u0120stimuli": 3198,
    "\u0120simulations": 3199,
    "\u0120plus": 3200,
    "\u0120suitable": 3201,
    "\u0120autophagy": 3202,
    "\u0120TM": 3203,
    "\u0120bars": 3204,
    "\u0120pneumonia": 3205,
    "\u0120yeast": 3206,
    "\u0120Out": 3207,
    "\u0120purified": 3208,
    "\u0120modification": 3209,
    "lip": 3210,
    "\u0120alterations": 3211,
    "\u0120germ": 3212,
    "\u0120traits": 3213,
    "\u0120estimation": 3214,
    "\u0120End": 3215,
    "\u0120instance": 3216,
    "\u0120depth": 3217,
    "\u0120cerebral": 3218,
    "\u0120communities": 3219,
    "\u0120interface": 3220,
    "\u0120cytokine": 3221,
    "\u0120reveals": 3222,
    "\u0120experiences": 3223,
    "\u0120policy": 3224,
    "\u0120antimicrobial": 3225,
    "\u0120staff": 3226,
    "\u0120project": 3227,
    "\u0120pathogenesis": 3228,
    "\u0120extrem": 3229,
    "\u0120Syn": 3230,
    "\u0120AF": 3231,
    "\u0120enrol": 3232,
    "\u0120lowest": 3233,
    "\u0120endogenous": 3234,
    "\u0120susceptibility": 3235,
    "\u0120milk": 3236,
    "\u0120promising": 3237,
    "ecting": 3238,
    "\u0120attributed": 3239,
    "\u0120intervals": 3240,
    "\u0120selective": 3241,
    "\u0120box": 3242,
    "\u0120Evaluation": 3243,
    "\u0120composite": 3244,
    "\u0120Despite": 3245,
    "\u0120acquisition": 3246,
    "\u0120considering": 3247,
    "\u0120mis": 3248,
    "\u0120fall": 3249,
    "gram": 3250,
    "\u0120gastro": 3251,
    "\u0120emotional": 3252,
    "\u0120loop": 3253,
    "\u0120move": 3254,
    "water": 3255,
    "\u0120table": 3256,
    "\u0120peaks": 3257,
    "\u0120basal": 3258,
    "ements": 3259,
    "\u0120spin": 3260,
    "\u0120American": 3261,
    "\u0120grown": 3262,
    "\u0120Prim": 3263,
    "\u0120true": 3264,
    "\u0120charge": 3265,
    "\u0120start": 3266,
    "\u0120improving": 3267,
    "\u0120feedback": 3268,
    "int": 3269,
    "\u0120representation": 3270,
    "\u0120storage": 3271,
    "\u0120onc": 3272,
    "iring": 3273,
    "atus": 3274,
    "cribed": 3275,
    "\u0120aware": 3276,
    "\u0120urban": 3277,
    "\u0120sem": 3278,
    "\u0120cervical": 3279,
    "\u0120separate": 3280,
    "\u0120expressing": 3281,
    "\u0120chosen": 3282,
    "\u0120apparent": 3283,
    "\u0120chromosome": 3284,
    "lated": 3285,
    "\u0120Back": 3286,
    "\u0120errors": 3287,
    "\u0120GC": 3288,
    "otes": 3289,
    "\u0120Under": 3290,
    "\u0120plots": 3291,
    "\u0120whose": 3292,
    "\u0120cycles": 3293,
    "oxyl": 3294,
    "\u0120belong": 3295,
    "izations": 3296,
    "\u0120latter": 3297,
    "\u0120ions": 3298,
    "\u0120variations": 3299,
    "activated": 3300,
    "\u0120SM": 3301,
    "\u0120Do": 3302,
    "\u0120residual": 3303,
    "\u0120HA": 3304,
    "\u0120reached": 3305,
    "\u0120Three": 3306,
    "\u0120effectively": 3307,
    "\u0120modeling": 3308,
    "\u0120sed": 3309,
    ".;": 3310,
    "\u0120minor": 3311,
    "infected": 3312,
    "\u0120arrow": 3313,
    "ners": 3314,
    "\u0120expansion": 3315,
    "ping": 3316,
    "negative": 3317,
    "\u0120AS": 3318,
    "\u0120parts": 3319,
    "\u0120describe": 3320,
    "\u0120Eq": 3321,
    "risk": 3322,
    "\u0120fresh": 3323,
    "\u0120parallel": 3324,
    "\u0120LC": 3325,
    "\u0120analog": 3326,
    "\u0120tail": 3327,
    "\u0120perspective": 3328,
    "\u0120articles": 3329,
    "\u0120antibiotic": 3330,
    "\u0120epidemi": 3331,
    "\u0120AM": 3332,
    "\u0120sperm": 3333,
    "\u0120LPS": 3334,
    "\u0120purpose": 3335,
    "\u0120operation": 3336,
    "\u0120HCC": 3337,
    "\u0120subjected": 3338,
    "HS": 3339,
    "etry": 3340,
    "\u0120onto": 3341,
    "tification": 3342,
    "\u0120reasons": 3343,
    "ometer": 3344,
    "An": 3345,
    "\u0120OS": 3346,
    "\u0120adjust": 3347,
    "\u0120defects": 3348,
    "\u0120stored": 3349,
    "olytic": 3350,
    "\u0120users": 3351,
    "\u0120constrain": 3352,
    "\u0120CC": 3353,
    "\u0120velocity": 3354,
    "\u0120glass": 3355,
    "\u0120Path": 3356,
    "\u0120therapies": 3357,
    "\u0120Nan": 3358,
    "\u0120polyp": 3359,
    "\u0120integration": 3360,
    "\u0120&": 3361,
    "\u0120nucleus": 3362,
    "\u0120text": 3363,
    "\u0120temperatures": 3364,
    "\u0120myocardial": 3365,
    "\u0120called": 3366,
    "gel": 3367,
    "\u0120digital": 3368,
    "bly": 3369,
    "\u0120qualitative": 3370,
    "\u0120affinity": 3371,
    "\u0120impaired": 3372,
    "\u0120gradient": 3373,
    "olysis": 3374,
    "\u0120Overall": 3375,
    "\u0120leaves": 3376,
    "\u0120Scientific": 3377,
    "\u0120phosphate": 3378,
    "\u0120enrichment": 3379,
    "\u0120initiation": 3380,
    "\u0120elderly": 3381,
    "\u0120taking": 3382,
    "\u0120South": 3383,
    "Table": 3384,
    "\u0120beam": 3385,
    "\u0120isolation": 3386,
    "rand": 3387,
    "\u0120dog": 3388,
    "\u0120oc": 3389,
    "\u0120NK": 3390,
    "\u0120radical": 3391,
    "\u0120dark": 3392,
    "\u0120metastatic": 3393,
    "\u0120superior": 3394,
    "\u0120kit": 3395,
    "\u0120subsequently": 3396,
    "\u0120genotype": 3397,
    "\u0120extended": 3398,
    "\u0120country": 3399,
    "\u0120invasive": 3400,
    "\u0120clinic": 3401,
    "\u0120VE": 3402,
    "\u0120ethanol": 3403,
    "\u0120oxidation": 3404,
    "\u0120ES": 3405,
    "\u0120primarily": 3406,
    "asia": 3407,
    "\u0120tube": 3408,
    "\u0120transferred": 3409,
    "\u0120Previous": 3410,
    "\u0120loading": 3411,
    "\",": 3412,
    "pass": 3413,
    "\u0120aimed": 3414,
    "\u0120crystal": 3415,
    "\u0120thor": 3416,
    "\u0120measuring": 3417,
    "\u0120zero": 3418,
    "\u0120NP": 3419,
    "\u0120coverage": 3420,
    "\u0120transformation": 3421,
    "To": 3422,
    "\u0120coupling": 3423,
    "\u0120rapidly": 3424,
    "\u0120ovarian": 3425,
    "\u0120ten": 3426,
    "onin": 3427,
    "\u0120absorb": 3428,
    "\u0120gap": 3429,
    "DA": 3430,
    "opsis": 3431,
    "\u0120frequencies": 3432,
    "\u0120ubiqu": 3433,
    "\u0120separated": 3434,
    "\u0120surround": 3435,
    "\u0120beyond": 3436,
    "\u0120reliability": 3437,
    "\u0120PK": 3438,
    "night": 3439,
    "\u0120Role": 3440,
    "weight": 3441,
    "\u0120recommendations": 3442,
    "\u0120Bar": 3443,
    "\u0120Studies": 3444,
    "\u0120SA": 3445,
    "\u0120determination": 3446,
    "TS": 3447,
    "\u0120give": 3448,
    "\u0120microscope": 3449,
    "\u0120indirect": 3450,
    "\u0120malignant": 3451,
    "\u0120recruitment": 3452,
    "\u0120thin": 3453,
    "\u0120tasks": 3454,
    "ned": 3455,
    "\u0120maintenance": 3456,
    "\u0120ultrasound": 3457,
    "\u0120retrospective": 3458,
    "\u0120utilized": 3459,
    "\u0120recombinant": 3460,
    "\u0120household": 3461,
    "\u0120electronic": 3462,
    "\u0120infants": 3463,
    "\u0120MAP": 3464,
    "\u0120thyroid": 3465,
    "itor": 3466,
    "tention": 3467,
    "\u0120beneficial": 3468,
    "\u0120return": 3469,
    "\u0120randomly": 3470,
    "\u0120fields": 3471,
    "icine": 3472,
    "\u0120million": 3473,
    "ducing": 3474,
    ".\"": 3475,
    "\u0120primers": 3476,
    "\u0120affecting": 3477,
    "\u0120signs": 3478,
    "\u0120SS": 3479,
    "\u0120colorectal": 3480,
    "\u0120clinically": 3481,
    "\u0120insights": 3482,
    "\u0120prolong": 3483,
    "opic": 3484,
    "\u0120RP": 3485,
    "illing": 3486,
    "\u0120cav": 3487,
    "\u0120consensus": 3488,
    "\u0120implemented": 3489,
    "\u0120separation": 3490,
    "\u0120ranging": 3491,
    "\u0120created": 3492,
    "\u0120hormone": 3493,
    "\u0120advantage": 3494,
    "\u0120Four": 3495,
    "\u0120plasmid": 3496,
    "\u0120expect": 3497,
    "\u0120fracture": 3498,
    "\u0120longitudinal": 3499,
    "\u0120candidate": 3500,
    "\u0120transplantation": 3501,
    "\u0120seem": 3502,
    "gal": 3503,
    "\u0120positions": 3504,
    "\u0120missing": 3505,
    "\u0120downstream": 3506,
    "\u0120Disease": 3507,
    "\u0120cDNA": 3508,
    "\u0120amounts": 3509,
    "\u0120instead": 3510,
    "ifying": 3511,
    "\u0120encoding": 3512,
    "heimer": 3513,
    "\u0120facilitate": 3514,
    "ON": 3515,
    "\u0120Risk": 3516,
    "\u0120respondents": 3517,
    "\u0120enriched": 3518,
    "\u0120perception": 3519,
    "\u0120Van": 3520,
    "\u0120probably": 3521,
    "],": 3522,
    "\u0120Patient": 3523,
    "\u0120translation": 3524,
    "\u0120film": 3525,
    "\u0120growing": 3526,
    "\u0120Current": 3527,
    "\u0120consequences": 3528,
    "\u0120algorithms": 3529,
    "\u0120rab": 3530,
    "\u0120coefficients": 3531,
    "\u0120Indeed": 3532,
    "itus": 3533,
    "\u0120developmental": 3534,
    "ether": 3535,
    "\u0120Rh": 3536,
    "\u0120asthma": 3537,
    "\u0120regulating": 3538,
    "vity": 3539,
    "\u0120decline": 3540,
    "\u0120negatively": 3541,
    "\u0120injected": 3542,
    "\u0120war": 3543,
    "dehyde": 3544,
    "\u0120salt": 3545,
    "luorescence": 3546,
    "\u0120miRNA": 3547,
    "ives": 3548,
    "\u0120fibers": 3549,
    "\u0120Background": 3550,
    "\u0120www": 3551,
    "\u0120issue": 3552,
    "\u0120reconstruction": 3553,
    "\u0120synthesized": 3554,
    "\u0120toxic": 3555,
    "\u0120differentially": 3556,
    "\u0120frequent": 3557,
    "oblast": 3558,
    "\u0120fetal": 3559,
    "vascular": 3560,
    "\u0120Post": 3561,
    "\u0120sum": 3562,
    "ares": 3563,
    "\u0120filter": 3564,
    "\u0120ana": 3565,
    "\u0120CB": 3566,
    "\u0120amplitude": 3567,
    "sectional": 3568,
    "ga": 3569,
    "\u0120pathogen": 3570,
    "\u0120resection": 3571,
    "\u0120scaffold": 3572,
    "\u0120carry": 3573,
    "\u0120influenced": 3574,
    "\u0120fore": 3575,
    "\u0120figure": 3576,
    "\u0120placebo": 3577,
    "tub": 3578,
    "\u0120miRNAs": 3579,
    "\u0120Given": 3580,
    "\u0120begin": 3581,
    "\u0120independently": 3582,
    "sup": 3583,
    "seq": 3584,
    "\u0120validated": 3585,
    "\u0120ke": 3586,
    "ura": 3587,
    "\u0120deletion": 3588,
    "\u0120immediately": 3589,
    "\u0120explored": 3590,
    "\u0120appeared": 3591,
    "intestinal": 3592,
    "\u0120risks": 3593,
    "etric": 3594,
    "ancies": 3595,
    "\u0120intermediate": 3596,
    "\u0120actin": 3597,
    "\u0120indicators": 3598,
    "\u0120changed": 3599,
    "\u0120surfaces": 3600,
    "\u0120cover": 3601,
    "\u0120arm": 3602,
    "lude": 3603,
    "\u0120cer": 3604,
    "\u0120distributions": 3605,
    "\u0120validity": 3606,
    "\u0120predominant": 3607,
    "\u0120conversion": 3608,
    "venous": 3609,
    "\u0120reviewed": 3610,
    "flow": 3611,
    "\u0120cord": 3612,
    "\u0120shared": 3613,
    "\u0120similarity": 3614,
    "\u0120interpretation": 3615,
    "\u0120meaning": 3616,
    "\u0120GP": 3617,
    "\u0120kind": 3618,
    "\u0120tomography": 3619,
    "\u0120antibiotics": 3620,
    "\u0120rot": 3621,
    "\u0120Mg": 3622,
    "journal": 3623,
    "\u0120skills": 3624,
    "\u0120theoretical": 3625,
    "\u0120accordance": 3626,
    "\u0120modulation": 3627,
    "\u0120situation": 3628,
    "actic": 3629,
    "\u0120spontaneous": 3630,
    "\u0120Cal": 3631,
    "\u0120participation": 3632,
    "\u0120construct": 3633,
    "ened": 3634,
    "\u0120circum": 3635,
    "ulum": 3636,
    "\u0120formal": 3637,
    "\u0120mitochondria": 3638,
    "formed": 3639,
    "being": 3640,
    "\u0120emergency": 3641,
    "\u0120actual": 3642,
    "\u0120minimal": 3643,
    "\u0120Also": 3644,
    "\u0120thought": 3645,
    "\u0120pathology": 3646,
    "\u0120phases": 3647,
    "\u0120MO": 3648,
    "oration": 3649,
    "\u0120starting": 3650,
    "\u0120Use": 3651,
    "ensitive": 3652,
    "\u0120rural": 3653,
    "\u0120resistant": 3654,
    "tors": 3655,
    "\u0120GO": 3656,
    "\u0120substantial": 3657,
    "\u0120CK": 3658,
    "illin": 3659,
    "\u0120participate": 3660,
    "omb": 3661,
    "\u0120upregulated": 3662,
    "\u0120identity": 3663,
    "\u0120pathogens": 3664,
    "ike": 3665,
    "\u0120synthetic": 3666,
    "\u0120International": 3667,
    "sibility": 3668,
    "\u0120classes": 3669,
    "\u0120category": 3670,
    "containing": 3671,
    "\u0120fabric": 3672,
    "\u0120respective": 3673,
    "king": 3674,
    "\u0120outside": 3675,
    "iver": 3676,
    "\u0120alignment": 3677,
    "\u0120AA": 3678,
    "\u0120dependence": 3679,
    "\u0120quantum": 3680,
    "\u0120pediatric": 3681,
    "apse": 3682,
    "\u0120quantification": 3683,
    "\u0120abdominal": 3684,
    "\u0120Committee": 3685,
    "\u0120cold": 3686,
    "\u0120exchange": 3687,
    "\u0120records": 3688,
    "\u0120pulse": 3689,
    "\u0120Alzheimer": 3690,
    "\u0120connected": 3691,
    "\u0120makes": 3692,
    "\u0120let": 3693,
    "\u0120Mat": 3694,
    "\u0120recording": 3695,
    "\u0120Ni": 3696,
    "\u0120absolute": 3697,
    "\u0120magnitude": 3698,
    "\u0120allele": 3699,
    "\u0120pure": 3700,
    "ends": 3701,
    "\u0120goal": 3702,
    "\u0120correction": 3703,
    "\u0120extensive": 3704,
    "\u0120Hence": 3705,
    "\u0120Mor": 3706,
    "\u0120SC": 3707,
    "\u0120hospitals": 3708,
    "\u0120ventricular": 3709,
    "\u0120TLR": 3710,
    "\u0120How": 3711,
    "\u0120etc": 3712,
    "\u0120saline": 3713,
    "\u0120lar": 3714,
    "\u0120definition": 3715,
    "\u0120consists": 3716,
    "IA": 3717,
    "\u0120stimulus": 3718,
    "\u0120adaptation": 3719,
    "target": 3720,
    "\u0120grain": 3721,
    "\u0120contributions": 3722,
    "\u0120interesting": 3723,
    "\u0120suppression": 3724,
    "\u0120Note": 3725,
    "phase": 3726,
    "\u0120clustering": 3727,
    "\u0120outbreak": 3728,
    "\u0120adherence": 3729,
    "\u0120Such": 3730,
    "\u0120CX": 3731,
    "\u0120cis": 3732,
    "\u0120metric": 3733,
    "\u0120itself": 3734,
    "\u0120biopsy": 3735,
    "\u0120extension": 3736,
    "otin": 3737,
    "\u0120malaria": 3738,
    "\u0120equivalent": 3739,
    "\u0120prefer": 3740,
    "clinical": 3741,
    "\u0120trends": 3742,
    "\u0120dominant": 3743,
    "\u0120commercial": 3744,
    "\u0120deaths": 3745,
    "\u0120TP": 3746,
    "\u0120SE": 3747,
    "\u0120overnight": 3748,
    "\u0120AL": 3749,
    "\u0120cam": 3750,
    "\u0120live": 3751,
    "\u0120skeletal": 3752,
    "reported": 3753,
    "\u0120adsorption": 3754,
    "\u0120Ins": 3755,
    "\u0120identifying": 3756,
    "\u0120nucleotide": 3757,
    "\u0120optimization": 3758,
    "\u0120retinal": 3759,
    "\u0120composed": 3760,
    "\u0120regional": 3761,
    "\u0120substrates": 3762,
    "\u0120involves": 3763,
    "\u0120mammalian": 3764,
    "\u0120rice": 3765,
    "\u0120dental": 3766,
    "\u0120HS": 3767,
    "\u0120unclear": 3768,
    "yth": 3769,
    "arbon": 3770,
    "\u0120phenotypes": 3771,
    "\u0120complexity": 3772,
    "\u0120smooth": 3773,
    "\u0120climate": 3774,
    "\u0120varied": 3775,
    "\u0120stop": 3776,
    "\u0120healing": 3777,
    "\u0120identical": 3778,
    "\u0120protocols": 3779,
    "\u0120Organ": 3780,
    "\u0120electrode": 3781,
    "\u0120largely": 3782,
    "\u0120Pos": 3783,
    "xin": 3784,
    "methyl": 3785,
    "\u0120SI": 3786,
    "\u0120Due": 3787,
    "\u0120coding": 3788,
    "eptide": 3789,
    "\u0120homeostasis": 3790,
    "\u0120childhood": 3791,
    "\u0120user": 3792,
    "\u0120inside": 3793,
    "\u0120serious": 3794,
    "\u0120mom": 3795,
    "\u0120supporting": 3796,
    "\u0120satisfaction": 3797,
    "\u0120uniform": 3798,
    "\u0120reliable": 3799,
    "\u0120Impact": 3800,
    "\u0120hepatitis": 3801,
    "\u0120modifications": 3802,
    "\u0120uses": 3803,
    "\u0120fed": 3804,
    "sub": 3805,
    "\u0120genomes": 3806,
    "\u0120transcripts": 3807,
    "\u0120Num": 3808,
    "\u0120ure": 3809,
    "\u0120ring": 3810,
    "\u0120sensory": 3811,
    "\u0120arterial": 3812,
    "\u0120amplification": 3813,
    "\u0120assessing": 3814,
    "\u0120methodology": 3815,
    "\u0120environments": 3816,
    "\u0120scientific": 3817,
    "\u0120egg": 3818,
    "\u0120dementia": 3819,
    "\u0120Ha": 3820,
    "\u0120numerous": 3821,
    "\u0120dimensions": 3822,
    "\u0120promoting": 3823,
    "\u0120vaccines": 3824,
    "\u0120predictors": 3825,
    "\u0120impl": 3826,
    "\u0120obvious": 3827,
    "relation": 3828,
    "uctu": 3829,
    "Ms": 3830,
    "\u0120zone": 3831,
    "\u0120biochemical": 3832,
    "\u0120labeled": 3833,
    "tumor": 3834,
    "\u0120discovery": 3835,
    "\u0120knee": 3836,
    "\u0120Care": 3837,
    "\u0120BP": 3838,
    "\u0120Arabidopsis": 3839,
    "\u0120Schematic": 3840,
    "\u0120written": 3841,
    "\u0120BD": 3842,
    "\u0120***": 3843,
    "\u0120caps": 3844,
    "\u0120safe": 3845,
    "Ns": 3846,
    "cor": 3847,
    "\u0120fragments": 3848,
    "ylated": 3849,
    "\u0120locations": 3850,
    "\u0120adaptive": 3851,
    "\u0120calculation": 3852,
    "ovirus": 3853,
    "\u0120words": 3854,
    "\u0120Child": 3855,
    "\u0120contributes": 3856,
    "\u0120SR": 3857,
    "\u0120Jan": 3858,
    "\u0120why": 3859,
    "\u0120improves": 3860,
    "ophila": 3861,
    "\u0120donor": 3862,
    "\u0120coronavirus": 3863,
    "Bs": 3864,
    "\u0120released": 3865,
    "\u0120initially": 3866,
    "immune": 3867,
    "\u0120Pe": 3868,
    "\u0120melanoma": 3869,
    "\u0120assumed": 3870,
    "\u0120demographic": 3871,
    "\u0120highlight": 3872,
    "\u0120native": 3873,
    "\u0120GFP": 3874,
    "\u0120Ma": 3875,
    "\u0120your": 3876,
    "\u0120Fl": 3877,
    "odynamic": 3878,
    "\u0120varying": 3879,
    "week": 3880,
    "\u0120likelihood": 3881,
    "PSS": 3882,
    "\u0120enough": 3883,
    "\u0120sense": 3884,
    "\u0120Institute": 3885,
    "\u0120publication": 3886,
    "\u0120Target": 3887,
    "\u0120logistic": 3888,
    "raction": 3889,
    "\u0120conform": 3890,
    "\u0120orientation": 3891,
    "\u0120Pot": 3892,
    "\u0120rise": 3893,
    "\u0120enhances": 3894,
    "\u0120morphological": 3895,
    "\u0120neck": 3896,
    "ulose": 3897,
    "\u0120ones": 3898,
    "ras": 3899,
    "\u0120mim": 3900,
    "\u0120package": 3901,
    "\u0120physicians": 3902,
    "\u0120resource": 3903,
    "ilities": 3904,
    "ocytosis": 3905,
    "\u0120organs": 3906,
    "\u0120lob": 3907,
    "\u0120trauma": 3908,
    "\u0120SU": 3909,
    "\u0120favor": 3910,
    "\u0120description": 3911,
    "\u0120barriers": 3912,
    "\u0120efforts": 3913,
    "\u0120fluorescent": 3914,
    "\u0120causing": 3915,
    "\u0120international": 3916,
    "\u0120abnormalities": 3917,
    "rosine": 3918,
    "\u0120nod": 3919,
    "\u0120Nevertheless": 3920,
    "\u0120SH": 3921,
    "\u0120recognized": 3922,
    "\u0120market": 3923,
    "\u0120waste": 3924,
    "\u0120array": 3925,
    "\u0120limitation": 3926,
    "\u0120largest": 3927,
    "eds": 3928,
    "\u0120financial": 3929,
    "\u0120enhancement": 3930,
    "\u0120becomes": 3931,
    "\u0120subunit": 3932,
    "\u0120Only": 3933,
    "\u0120worldwide": 3934,
    "\u0120extra": 3935,
    "\u0120biosynthesis": 3936,
    "\u0120tele": 3937,
    "ester": 3938,
    "\u0120deposition": 3939,
    "\u0120biology": 3940,
    "\u0120chromatin": 3941,
    "\u0120create": 3942,
    "\u0120nervous": 3943,
    "\u0120offer": 3944,
    "\u0120isoform": 3945,
    "\u0120necrosis": 3946,
    "\u0120NH": 3947,
    "\u0120fever": 3948,
    "\u0120Mac": 3949,
    "\u0120vehicle": 3950,
    "\u0120supplementation": 3951,
    "\u0120Sol": 3952,
    "\u0120relax": 3953,
    "\u0120planning": 3954,
    "\u0120SDS": 3955,
    "\u0120simulated": 3956,
    "\u0120Following": 3957,
    "\u0120Additional": 3958,
    "\u0120urine": 3959,
    "\u0120gold": 3960,
    "\u0120trained": 3961,
    "phen": 3962,
    "\u0120instrument": 3963,
    "\u0120impacts": 3964,
    "\u0120AK": 3965,
    "\u0120MI": 3966,
    "\u0120Recent": 3967,
    "enic": 3968,
    "\u0120bleeding": 3969,
    "\u0120adjacent": 3970,
    "\u0120Africa": 3971,
    "\u0120nurses": 3972,
    "\u0120supplemented": 3973,
    "\u0120conduct": 3974,
    "arth": 3975,
    "\u0120bands": 3976,
    "angi": 3977,
    "\u0120edge": 3978,
    "\u0120width": 3979,
    "\u0120listed": 3980,
    "\u0120suspension": 3981,
    "\u0120presents": 3982,
    "\u0120routine": 3983,
    "\u0120possess": 3984,
    "\u0120practical": 3985,
    "\u0120Mc": 3986,
    "\u0120vessels": 3987,
    "\u0120connectivity": 3988,
    "\u0120recurrent": 3989,
    "\u0120What": 3990,
    "\u0120PH": 3991,
    "\u0120round": 3992,
    "\u0120atoms": 3993,
    "\".": 3994,
    "\u0120technologies": 3995,
    "\u0120embed": 3996,
    "dose": 3997,
    "ione": 3998,
    "\u0120SNPs": 3999,
    "economic": 4000,
    "ensis": 4001,
    "\u0120siRNA": 4002,
    "\u0120requirements": 4003,
    "azole": 4004,
    "\u0120anth": 4005,
    "\u0120knockdown": 4006,
    "\u0120visit": 4007,
    "\u0120Class": 4008,
    "\u0120fractions": 4009,
    "\u0120Information": 4010,
    "\u0120foot": 4011,
    "actin": 4012,
    "\u0120predicting": 4013,
    "\u0120processed": 4014,
    "\u0120Au": 4015,
    "ophage": 4016,
    "\u0120concerns": 4017,
    "\u0120object": 4018,
    "urance": 4019,
    "\u0120supply": 4020,
    "\u0120NPs": 4021,
    "\u0120BC": 4022,
    "\u0120calculate": 4023,
    "\u0120allowing": 4024,
    "\u0120polymerase": 4025,
    "lin": 4026,
    "\u0120Qual": 4027,
    "\u0120architecture": 4028,
    "TOR": 4029,
    "\u0120visible": 4030,
    "\u0120NMR": 4031,
    "\u0120sat": 4032,
    "\u0120BM": 4033,
    "\u0120computer": 4034,
    "\u0120spectral": 4035,
    "\u0120raw": 4036,
    "ochemistry": 4037,
    "\u0120synaptic": 4038,
    "\u0120maps": 4039,
    "\u0120emerging": 4040,
    "\u0120discharge": 4041,
    "\u0120crop": 4042,
    "\u0120phenomenon": 4043,
    "\u0120pil": 4044,
    "vasive": 4045,
    "\u0120Therm": 4046,
    "\u0120ML": 4047,
    "\u0120plane": 4048,
    "piration": 4049,
    "\u0120tuberculosis": 4050,
    "\u0120solvent": 4051,
    "\u0120Genetic": 4052,
    "\u0120films": 4053,
    "omers": 4054,
    "\u0120primer": 4055,
    "\u0120mask": 4056,
    "\u0120consisted": 4057,
    "\u0120circulating": 4058,
    "AMP": 4059,
    "\u0120mature": 4060,
    "\u0120professional": 4061,
    "\u0120entry": 4062,
    "\u0120derivatives": 4063,
    "transfer": 4064,
    "\u0120electrical": 4065,
    "\u0120undergoing": 4066,
    "\u0120la": 4067,
    "\u0120NaCl": 4068,
    "\u0120catalytic": 4069,
    "\u0120bottom": 4070,
    "DH": 4071,
    "\u0120distinguish": 4072,
    "\u0120habit": 4073,
    "\u0120fibroblasts": 4074,
    "times": 4075,
    "\u0120Characteristics": 4076,
    "\u0120Many": 4077,
    "\u0120urinary": 4078,
    ".-": 4079,
    "\u0120cavity": 4080,
    "\u0120representing": 4081,
    "\u0120sent": 4082,
    "\u0120gest": 4083,
    "linked": 4084,
    "\u0120reproductive": 4085,
    "\u0120repeat": 4086,
    "''": 4087,
    "\u0120false": 4088,
    "\u0120Ethics": 4089,
    "\u0120LV": 4090,
    "\u0120excellent": 4091,
    "ract": 4092,
    "\u0120clon": 4093,
    "\u0120Yang": 4094,
    "\u0120AMP": 4095,
    "\u0120scales": 4096,
    "\u0120biomarker": 4097,
    "\u0120define": 4098,
    "\u0120genotypes": 4099,
    "\u0120PET": 4100,
    "\u0120disturb": 4101,
    "\u0120untreated": 4102,
    "\u0120Anal": 4103,
    "-,": 4104,
    "\u0120nearly": 4105,
    "\u0120instructions": 4106,
    "\u0120comparative": 4107,
    "\u0120serve": 4108,
    "aceae": 4109,
    "\u0120suff": 4110,
    "ait": 4111,
    "\u0120bovine": 4112,
    "\u0120CL": 4113,
    "\u0120professionals": 4114,
    "month": 4115,
    "\u0120pregnant": 4116,
    "\u0120pi": 4117,
    "\u0120regeneration": 4118,
    "\u0120adequate": 4119,
    "ather": 4120,
    "\u0120Ref": 4121,
    "\u0120chick": 4122,
    "\u0120scanning": 4123,
    "\u0120platelet": 4124,
    "\u0120guide": 4125,
    "\u0120residue": 4126,
    "\u0120Section": 4127,
    "\u0120ischemic": 4128,
    "\u0120income": 4129,
    "DS": 4130,
    "Further": 4131,
    "acting": 4132,
    "\u0120fatigue": 4133,
    "\u0120Prevalence": 4134,
    "\u0120cleavage": 4135,
    "\u0120surveillance": 4136,
    "tem": 4137,
    "\u0120aqueous": 4138,
    "\u0120appearance": 4139,
    "\u0120IS": 4140,
    "field": 4141,
    "GO": 4142,
    "\u0120NS": 4143,
    "\u0120evaluating": 4144,
    "\u0120fruit": 4145,
    "\u0120FA": 4146,
    "\u0120prolonged": 4147,
    "\u0120Next": 4148,
    "oscopy": 4149,
    "\u0120undergo": 4150,
    "\u0120lum": 4151,
    "\u0120actions": 4152,
    "\u0120subset": 4153,
    "\u0120murine": 4154,
    "\u0120never": 4155,
    "\u0120EP": 4156,
    "iance": 4157,
    "osine": 4158,
    "\u0120loci": 4159,
    "\u0120pathogenic": 4160,
    "\u0120trap": 4161,
    "\u0120blocks": 4162,
    "\u0120shorter": 4163,
    "\u0120Test": 4164,
    "\u0120approval": 4165,
    "\u0120transgenic": 4166,
    "\u0120decreasing": 4167,
    "cy": 4168,
    "life": 4169,
    "\u0120PV": 4170,
    "\u0120recruited": 4171,
    "\u0120mobile": 4172,
    "\u0120utilization": 4173,
    "\u0120DC": 4174,
    "ucid": 4175,
    "\u0120observe": 4176,
    "\u0120correspond": 4177,
    "\u0120inhibiting": 4178,
    "hell": 4179,
    "\u0120simultaneously": 4180,
    "\u0120modes": 4181,
    "\u0120heavy": 4182,
    "\u0120ranged": 4183,
    "\u0120vectors": 4184,
    "\u0120vertical": 4185,
    "\u0120educational": 4186,
    "\u0120aureus": 4187,
    "\u0120evol": 4188,
    "\u0120FT": 4189,
    "\u0120namely": 4190,
    "\u0120bladder": 4191,
    "\u0120computational": 4192,
    "\u0120Time": 4193,
    "\u0120neurological": 4194,
    "\u0120options": 4195,
    "\u0120Changes": 4196,
    "Med": 4197,
    "izumab": 4198,
    "\u0120controlling": 4199,
    "\u0120newly": 4200,
    "ologists": 4201,
    "\u0120multivariate": 4202,
    "\u0120occurring": 4203,
    "\u0120summarized": 4204,
    "\u0120inner": 4205,
    "gence": 4206,
    "\u0120demand": 4207,
    "\u0120Bay": 4208,
    "\u0120introduction": 4209,
    "\u0120evolutionary": 4210,
    "\u0120histone": 4211,
    "\u0120stay": 4212,
    "\u0120standards": 4213,
    "\u0120predictor": 4214,
    "\u0120contents": 4215,
    "\u0120nuclei": 4216,
    "\u0120separately": 4217,
    "\u0120nine": 4218,
    "\u0120Global": 4219,
    "pone": 4220,
    "\u0120Early": 4221,
    "adian": 4222,
    "osal": 4223,
    "\u0120depart": 4224,
    "standing": 4225,
    "\u0120proximal": 4226,
    "\u0120flux": 4227,
    "\u0120surrounding": 4228,
    "lands": 4229,
    "\u0120nursing": 4230,
    "\u0120keep": 4231,
    "\u0120trigger": 4232,
    "\u0120Drug": 4233,
    "\u0120kept": 4234,
    "\u0120delayed": 4235,
    "oidal": 4236,
    "\u0120ice": 4237,
    "\u0120hair": 4238,
    "Rs": 4239,
    "\u0120EC": 4240,
    "ady": 4241,
    "\u0120determining": 4242,
    "\u0120highlighted": 4243,
    "\u0120remark": 4244,
    "\u0120scheme": 4245,
    "\u0120African": 4246,
    "anine": 4247,
    "\u0120mothers": 4248,
    "\u0120EGFR": 4249,
    "\u0120cytometry": 4250,
    "\u0120injuries": 4251,
    "\u0120Drosophila": 4252,
    "otropic": 4253,
    "\u0120retention": 4254,
    "\u0120hence": 4255,
    "grade": 4256,
    "\u0120lymphocytes": 4257,
    "\u0120embryos": 4258,
    "\u0120ligands": 4259,
    "\u0120influences": 4260,
    "\u0120histological": 4261,
    "psis": 4262,
    "\u0120visits": 4263,
    "\u0120advantages": 4264,
    "\u0120parent": 4265,
    "\u0120exclusion": 4266,
    "\u0120stimulated": 4267,
    "\u0120abundant": 4268,
    "\u0120precision": 4269,
    "\u0120attack": 4270,
    "\u0120confound": 4271,
    "\u0120construction": 4272,
    "\u0120Kit": 4273,
    "\u0120soluble": 4274,
    "\u0120sensing": 4275,
    "\u0120continued": 4276,
    "\u0120government": 4277,
    "\u0120challenging": 4278,
    "\u0120operating": 4279,
    "\u0120signalling": 4280,
    "\u0120awareness": 4281,
    "\u0120module": 4282,
    "\u0120eyes": 4283,
    "oglobin": 4284,
    "\u0120subtypes": 4285,
    "\u0120limits": 4286,
    "\u0120potent": 4287,
    "\u0120mobility": 4288,
    "\u0120rod": 4289,
    "\u0120ways": 4290,
    "\u0120medications": 4291,
    "\u0120distress": 4292,
    "\u0120macrophage": 4293,
    "ush": 4294,
    "\u0120documented": 4295,
    "\u0120irradiation": 4296,
    "\u0120STAT": 4297,
    "\u0120Structure": 4298,
    "\u0120chest": 4299,
    "\u0120And": 4300,
    "inates": 4301,
    "\u0120technical": 4302,
    "\u0120morbidity": 4303,
    "\u0120aortic": 4304,
    "ifi": 4305,
    "\u0120Flow": 4306,
    "\u0120binds": 4307,
    "\u0120HPV": 4308,
    "Ds": 4309,
    "\u0120Detection": 4310,
    "BB": 4311,
    "\u0120SF": 4312,
    "\u0120yellow": 4313,
    "\u0120replacement": 4314,
    "\u0120Summary": 4315,
    "\u0120indicator": 4316,
    "\u0120intravenous": 4317,
    "\u0120share": 4318,
    "\u0120lnc": 4319,
    "\u0120adding": 4320,
    "\u0120corresponds": 4321,
    "\u0120BR": 4322,
    "\u0120VEGF": 4323,
    "\u0120calculations": 4324,
    "\u0120Multiple": 4325,
    "\u0120chamber": 4326,
    "\u0120correlates": 4327,
    "\u0120clean": 4328,
    "\u0120providers": 4329,
    "ulates": 4330,
    "\u0120tel": 4331,
    "\u0120hip": 4332,
    "\u0120capable": 4333,
    "\u0120rich": 4334,
    "\u0120window": 4335,
    "\u0120fear": 4336,
    "\u0120Genome": 4337,
    "\u0120activate": 4338,
    "\u0120ELISA": 4339,
    "\u0120evident": 4340,
    "\u0120outer": 4341,
    "\u0120sessions": 4342,
    "\u0120defect": 4343,
    "\u0120''": 4344,
    "\u0120monitored": 4345,
    "\u0120mess": 4346,
    "\u0120member": 4347,
    "\u0120restricted": 4348,
    "\u0120boundary": 4349,
    "\u0120supernatant": 4350,
    "\u0120bulk": 4351,
    "\u0120feel": 4352,
    "\u0120muscles": 4353,
    "\u0120standardized": 4354,
    "but": 4355,
    "\u0120failed": 4356,
    "\u0120consisting": 4357,
    "prin": 4358,
    "\u0120transient": 4359,
    "\u0120science": 4360,
    "\u0120organisms": 4361,
    "\u0120AI": 4362,
    "\u0120intrinsic": 4363,
    "\u0120localized": 4364,
    "\u0120dogs": 4365,
    "\u0120investigations": 4366,
    "\u0120putative": 4367,
    "\u0120integrity": 4368,
    "\u0120innate": 4369,
    "\u0120Author": 4370,
    "\u0120overview": 4371,
    "\u0120comorbid": 4372,
    "\u0120applicable": 4373,
    "\u0120Fund": 4374,
    "\u0120depletion": 4375,
    "\u0120younger": 4376,
    "\u0120adipose": 4377,
    "\u0120option": 4378,
    "\u0120beginning": 4379,
    "\u0120interviews": 4380,
    "\u0120vein": 4381,
    "\u0120cardiomy": 4382,
    "\u0120persons": 4383,
    "\u0120formula": 4384,
    "\u0120kinetics": 4385,
    "\u0120graphene": 4386,
    "\u0120excess": 4387,
    "\u0120treating": 4388,
    "\u0120adopted": 4389,
    "\u0120building": 4390,
    "\u0120CRC": 4391,
    "\u0120angiogenesis": 4392,
    "\u0120India": 4393,
    "\u0120none": 4394,
    "\u0120fixation": 4395,
    "Am": 4396,
    "bound": 4397,
    "\u0120Different": 4398,
    "\u0120changing": 4399,
    "traction": 4400,
    "\u0120sepsis": 4401,
    "Gs": 4402,
    "tensive": 4403,
    "\u0120sor": 4404,
    "\u0120functioning": 4405,
    "\u0120locus": 4406,
    "\u0120chains": 4407,
    "\u0120quad": 4408,
    "\u0120combinations": 4409,
    "\u0120His": 4410,
    "\u0120overlap": 4411,
    "vic": 4412,
    "\u0120quite": 4413,
    "\u0120surge": 4414,
    "\u0120chromatography": 4415,
    "\u0120facilities": 4416,
    "\u0120video": 4417,
    "\u0120SV": 4418,
    "\u0120But": 4419,
    "\u0120radiotherapy": 4420,
    "\u0120limb": 4421,
    "\u0120TA": 4422,
    "loaded": 4423,
    "\u0120Science": 4424,
    "\u0120considerable": 4425,
    "\u0120pore": 4426,
    "structure": 4427,
    "\u0120Synthesis": 4428,
    "\u0120extremely": 4429,
    "\u0120nutritional": 4430,
    "\u0120TR": 4431,
    "\u0120PF": 4432,
    "\u0120persistent": 4433,
    "\u0120regulator": 4434,
    "\u0120equilibrium": 4435,
    "\u0120DR": 4436,
    "\u0120relevance": 4437,
    "\u0120indices": 4438,
    "\u0120enrolled": 4439,
    "\u0120moment": 4440,
    "\u0120maturation": 4441,
    "\u0120artificial": 4442,
    "\u0120dial": 4443,
    "\u0120sound": 4444,
    "\u0120fewer": 4445,
    "\u0120aggregation": 4446,
    "\u0120rehabilitation": 4447,
    "\u0120Recently": 4448,
    "\u0120Comb": 4449,
    "\u0120engagement": 4450,
    "\u0120odds": 4451,
    "\u0120uncertainty": 4452,
    "\u0120themselves": 4453,
    "\u0120decisions": 4454,
    "\u0120progressive": 4455,
    "\u0120fractures": 4456,
    "\u0120myc": 4457,
    "\u0120databases": 4458,
    "\u0120arthritis": 4459,
    "\u0120quick": 4460,
    "\u0120supports": 4461,
    "\u0120threat": 4462,
    "\u0120ij": 4463,
    "\u0120became": 4464,
    "\u0120NAD": 4465,
    "\u0120Single": 4466,
    "\u0120farm": 4467,
    "\u0120intensive": 4468,
    "\u0120CV": 4469,
    "\u0120implant": 4470,
    "natal": 4471,
    "\u0120disability": 4472,
    "\u0120mineral": 4473,
    "gene": 4474,
    "\u0120library": 4475,
    "\u0120demonstrating": 4476,
    "\u0120permeability": 4477,
    "Ac": 4478,
    "\u0120Image": 4479,
    "Fe": 4480,
    "\u0120transfection": 4481,
    "\u0120zinc": 4482,
    "ower": 4483,
    "\u0120predictions": 4484,
    "\u0120Representative": 4485,
    "\u0120law": 4486,
    "\u0120gradually": 4487,
    "\u0120illustrated": 4488,
    "\u0120protease": 4489,
    "\u0120Import": 4490,
    "\u0120segmentation": 4491,
    "All": 4492,
    "Therefore": 4493,
    "\u0120centers": 4494,
    "\u0120biomass": 4495,
    "\u0120Blood": 4496,
    "\u0120item": 4497,
    "\u0120automatic": 4498,
    ",\"": 4499,
    "\u0120maintaining": 4500,
    "sur": 4501,
    "\u0120vesicles": 4502,
    "\u0120explanation": 4503,
    "\u0120Tem": 4504,
    "\u0120nutrient": 4505,
    "\u0120frame": 4506,
    "\u0120cond": 4507,
    "\u0120GS": 4508,
    "\u0120partners": 4509,
    "\u0120RNAs": 4510,
    "zyme": 4511,
    "\u0120demonstrates": 4512,
    "\u0120embryonic": 4513,
    "\u0120profiling": 4514,
    "\u0120SW": 4515,
    "\u0120TG": 4516,
    "\u0120Hyp": 4517,
    "\u0120concluded": 4518,
    "\u0120Center": 4519,
    "\u0120albumin": 4520,
    "\u0120ICU": 4521,
    "\u0120lost": 4522,
    "independent": 4523,
    "\u0120closed": 4524,
    "\u0120North": 4525,
    "\u0120scenario": 4526,
    "\u0120Tumor": 4527,
    "\u0120consideration": 4528,
    "\u0120reviews": 4529,
    "\u0120dendritic": 4530,
    "\u0120easy": 4531,
    "\u0120segments": 4532,
    "\u0120cool": 4533,
    "\u0120Brazil": 4534,
    "\u0120peri": 4535,
    "\u0120neonatal": 4536,
    "\u0120driven": 4537,
    "\u0120General": 4538,
    "fusion": 4539,
    "\u0120understood": 4540,
    "\u0120job": 4541,
    "\u0120cytoplasmic": 4542,
    "osan": 4543,
    "\u0120lacking": 4544,
    "\u0120examples": 4545,
    "\u0120Wnt": 4546,
    "\u0120nutrition": 4547,
    "\u0120January": 4548,
    "\u0120RS": 4549,
    "\u0120engineering": 4550,
    "\u0120movements": 4551,
    "\u0120editing": 4552,
    "know": 4553,
    "\u0120pooled": 4554,
    "KO": 4555,
    "\u0120HLA": 4556,
    "\u0120Social": 4557,
    "\u0120consequence": 4558,
    "\u0120ranges": 4559,
    "\u0120preventing": 4560,
    "\u0120numerical": 4561,
    "ught": 4562,
    "\u0120applying": 4563,
    "\u0120bonds": 4564,
    "PT": 4565,
    "\u0120BL": 4566,
    "\u0120matched": 4567,
    "\u0120intact": 4568,
    "\u0120TF": 4569,
    "vey": 4570,
    "\u0120depressive": 4571,
    "\u0120Structural": 4572,
    "appro": 4573,
    "\u0120valuable": 4574,
    "\u0120narrow": 4575,
    "\u0120rough": 4576,
    "\u0120bilateral": 4577,
    "\u0120retro": 4578,
    "\u0120replicates": 4579,
    "\u0120stated": 4580,
    "\u0120weights": 4581,
    "hydrogen": 4582,
    "\u0120annual": 4583,
    "\u0120SNP": 4584,
    "\u0120Vol": 4585,
    "\u0120tyrosine": 4586,
    "idae": 4587,
    "\u0120portion": 4588,
    "\u0120heterogeneous": 4589,
    "\u0120acts": 4590,
    "\u0120NR": 4591,
    "\u0120constructs": 4592,
    "\u0120Chem": 4593,
    "\u0120enable": 4594,
    "rophic": 4595,
    "\u0120elong": 4596,
    "\u0120pump": 4597,
    "\u0120bowel": 4598,
    "\u0120metastases": 4599,
    "\u0120lipids": 4600,
    "\u0120susceptible": 4601,
    "\u0120excitation": 4602,
    "class": 4603,
    "\u0120EEG": 4604,
    "\u0120polarization": 4605,
    "iliary": 4606,
    "\u0120amyloid": 4607,
    "\u0120parental": 4608,
    "\u0120wheat": 4609,
    "\u0120obese": 4610,
    "\u0120ischemia": 4611,
    "\u0120fitness": 4612,
    "\u0120Factors": 4613,
    "\u0120aug": 4614,
    "through": 4615,
    "\u0120WHO": 4616,
    "\u0120restriction": 4617,
    "\u0120fine": 4618,
    "\u0120Measure": 4619,
    "\u0120industry": 4620,
    "\u0120CYP": 4621,
    "\u0120timing": 4622,
    "\u0120insertion": 4623,
    "ulsion": 4624,
    "\u0120paired": 4625,
    "lux": 4626,
    "\u0120reading": 4627,
    "\u0120took": 4628,
    "\u0120Ta": 4629,
    "\u0120Quantitative": 4630,
    "\u0120terminal": 4631,
    "\u0120cohorts": 4632,
    "\u0120analytical": 4633,
    "\u0120Network": 4634,
    "\u0120equations": 4635,
    "\u0120presenting": 4636,
    "\u0120precise": 4637,
    "\u0120nano": 4638,
    "\u0120covered": 4639,
    "chlor": 4640,
    "inating": 4641,
    "\u0120wavelength": 4642,
    "\u0120precursor": 4643,
    "\u0120stiff": 4644,
    "\u0120rotation": 4645,
    "\u0120genus": 4646,
    "\u0120reporter": 4647,
    "\u0120maxim": 4648,
    "\u0120interference": 4649,
    "\u0120COPD": 4650,
    "\u0120tag": 4651,
    "\u0120antigens": 4652,
    "\u0120opposite": 4653,
    "aldehyde": 4654,
    "phosphate": 4655,
    "rays": 4656,
    "\u0120powder": 4657,
    "\u0120DS": 4658,
    "\u0120preoperative": 4659,
    "\u0120schizophrenia": 4660,
    "\u0120residents": 4661,
    "\u0120Form": 4662,
    "\u0120electrodes": 4663,
    "\u0120Age": 4664,
    "\u0120Escherichia": 4665,
    "\u0120microbiome": 4666,
    "\u0120cry": 4667,
    "\u0120academic": 4668,
    "\u0120plasticity": 4669,
    "fil": 4670,
    "brain": 4671,
    "\u0120lens": 4672,
    "\u0120infusion": 4673,
    "\u0120attitudes": 4674,
    "\u0120ongoing": 4675,
    "\u0120para": 4676,
    "\u0120TH": 4677,
    "\u0120aspect": 4678,
    "\u0120improvements": 4679,
    "\u0120accompanied": 4680,
    "\u0120apoptotic": 4681,
    "\u0120Parkinson": 4682,
    "\u0120regardless": 4683,
    "ocytic": 4684,
    "\u0120specimen": 4685,
    "\u0120Her": 4686,
    "\u0120biofilm": 4687,
    "\u0120FL": 4688,
    "inder": 4689,
    "\u0120mellitus": 4690,
    "\u0120vessel": 4691,
    "oud": 4692,
    "\u0120classical": 4693,
    "hydroxy": 4694,
    "Based": 4695,
    "\u0120roots": 4696,
    "\u0120Reduc": 4697,
    "\u0120Regulation": 4698,
    "\u0120Primary": 4699,
    "\u0120Cre": 4700,
    "\u0120cytotoxicity": 4701,
    "\u0120Increased": 4702,
    "\u0120hippocampal": 4703,
    "\u0120scattering": 4704,
    "\u0120tobacco": 4705,
    "\u0120web": 4706,
    "\u0120conclusions": 4707,
    "\u0120Acute": 4708,
    "\u0120na": 4709,
    "\u0120remodeling": 4710,
    "\u0120dilution": 4711,
    "drug": 4712,
    "\u0120elastic": 4713,
    "prising": 4714,
    "\u0120assessments": 4715,
    "\u0120bed": 4716,
    "\u0120ME": 4717,
    "oped": 4718,
    "\u0120autoimmune": 4719,
    "\u0120Society": 4720,
    "ifier": 4721,
    "\u0120Are": 4722,
    "including": 4723,
    "\u0120psychiatric": 4724,
    "\u0120rating": 4725,
    "\u0120eti": 4726,
    "\u0120Bur": 4727,
    "aker": 4728,
    "\u0120vital": 4729,
    "',": 4730,
    "\u0120substance": 4731,
    "\u0120physician": 4732,
    "\u0120focal": 4733,
    "\u0120Animal": 4734,
    "\u0120contributing": 4735,
    "\u0120DE": 4736,
    "\u0120addressed": 4737,
    "\u0120GR": 4738,
    "\u0120bodies": 4739,
    "BT": 4740,
    "catenin": 4741,
    "\u0120forces": 4742,
    "\u0120square": 4743,
    "\u0120claim": 4744,
    "\u0120upregulation": 4745,
    "\u0120TE": 4746,
    "\u0120Self": 4747,
    "\u0120empirical": 4748,
    "yses": 4749,
    "eur": 4750,
    "\u0120semi": 4751,
    "\u0120Medicine": 4752,
    "\u0120dissolved": 4753,
    "aut": 4754,
    "\u0120determinants": 4755,
    "generative": 4756,
    "\u0120CE": 4757,
    "\u0120synth": 4758,
    "\u0120fundamental": 4759,
    "\u0120labor": 4760,
    "\u0120gland": 4761,
    "\u0120clearance": 4762,
    "\u0120optimized": 4763,
    "\u0120Serum": 4764,
    "\u0120visualization": 4765,
    "\u0120Os": 4766,
    "\u0120believe": 4767,
    "\u0120disruption": 4768,
    "\u0120hold": 4769,
    "\u0120horizontal": 4770,
    "\u0120opportunities": 4771,
    "\u0120ing": 4772,
    "\u0120difficulty": 4773,
    "\u0120infarction": 4774,
    "\u0120Ti": 4775,
    "\u0120enhancing": 4776,
    "\u0120faster": 4777,
    "\u0120Stand": 4778,
    "\u0120hex": 4779,
    "\u0120mediates": 4780,
    "\u0120principal": 4781,
    "driven": 4782,
    "\u0120Even": 4783,
    "erated": 4784,
    "\u0120forest": 4785,
    "\u0120recombination": 4786,
    "array": 4787,
    "while": 4788,
    "\u0120rabbit": 4789,
    "anes": 4790,
    "\u0120probes": 4791,
    "\u0120vas": 4792,
    "\u0120brief": 4793,
    "\u0120consult": 4794,
    "\u0120ideal": 4795,
    "\u0120hour": 4796,
    "size": 4797,
    "\u0120Phase": 4798,
    "\u0120configuration": 4799,
    "\u0120neuron": 4800,
    "\u0120calibration": 4801,
    "\u0120hypothesized": 4802,
    "\u0120cytotoxic": 4803,
    "\u0120delivered": 4804,
    "tism": 4805,
    "\u0120monitor": 4806,
    "\u0120template": 4807,
    "\u0120dorsal": 4808,
    "\u0120atrial": 4809,
    "\u0120Student": 4810,
    "\u0120Briefly": 4811,
    "\u0120harm": 4812,
    "\u0120forming": 4813,
    "\u0120shear": 4814,
    "tral": 4815,
    "\u0120Inhibition": 4816,
    "\u0120venous": 4817,
    "\u0120funding": 4818,
    "\u0120HER": 4819,
    "\u0120policies": 4820,
    "\u0120plotted": 4821,
    "\u0120driving": 4822,
    "\u0120lymphoma": 4823,
    "\u0120perturb": 4824,
    "\u0120Sil": 4825,
    "\u0120student": 4826,
    "\u0120mind": 4827,
    "\u0120sustained": 4828,
    "\u0120signature": 4829,
    "\u0120takes": 4830,
    "\u0120cumulative": 4831,
    "\u0120enzymatic": 4832,
    "\u0120adapt": 4833,
    "\u0120virtual": 4834,
    "\u0120implicated": 4835,
    "\u0120consecutive": 4836,
    "\u0120existence": 4837,
    "\u0120CSF": 4838,
    "\u0120derm": 4839,
    "\u0120row": 4840,
    "\u0120harvested": 4841,
    "awa": 4842,
    "\u0120loaded": 4843,
    "\u0120March": 4844,
    "tization": 4845,
    "\u0120downregulated": 4846,
    "\u0120Novel": 4847,
    "\u0120protect": 4848,
    "head": 4849,
    "\u0120Hb": 4850,
    "\u0120trees": 4851,
    "\u0120pharmacological": 4852,
    "\u0120guidance": 4853,
    "\u0120rule": 4854,
    "\u0120clinicians": 4855,
    "high": 4856,
    "\u0120foods": 4857,
    "\u0120finger": 4858,
    "\u0120Distribution": 4859,
    "\u0120Relationship": 4860,
    "rative": 4861,
    "\u0120DN": 4862,
    "\u0120ecological": 4863,
    "\u0120Influence": 4864,
    "\u0120hippocampus": 4865,
    "aden": 4866,
    "\u0120predominantly": 4867,
    "\u0120benz": 4868,
    "\u0120lifestyle": 4869,
    "\u0120overcome": 4870,
    "\u0120Brain": 4871,
    "\u0120volumes": 4872,
    "obacterium": 4873,
    "\u0120equip": 4874,
    "\u0120decay": 4875,
    "\u0120English": 4876,
    "\u0120degrees": 4877,
    "\u0120front": 4878,
    "\u0120difficulties": 4879,
    "\u0120perspectives": 4880,
    "\u0120electric": 4881,
    "\u0120displacement": 4882,
    "\u0120epigenetic": 4883,
    "\u0120copper": 4884,
    "\u0120CRI": 4885,
    "\u0120trim": 4886,
    "ba": 4887,
    "\u0120usage": 4888,
    "\u0120pilot": 4889,
    "\u0120colleagues": 4890,
    "\u0120alleles": 4891,
    "\u0120junction": 4892,
    "\u0120Specifically": 4893,
    "\u0120suppressed": 4894,
    "\u0120preference": 4895,
    "\u0120Correlation": 4896,
    "ylene": 4897,
    "\u0120involve": 4898,
    "\u0120Ltd": 4899,
    "itol": 4900,
    "\u0120haem": 4901,
    "\u0120producing": 4902,
    "\u0120GL": 4903,
    "\u0120gon": 4904,
    "uck": 4905,
    "\u0120season": 4906,
    "\u0120DA": 4907,
    "\u0120preliminary": 4908,
    "\u0120dye": 4909,
    "\u0120verified": 4910,
    "\u0120phenotypic": 4911,
    "\u0120reflected": 4912,
    "platin": 4913,
    "\u0120cartilage": 4914,
    "\u0120gave": 4915,
    "\u0120division": 4916,
    "\u0120NSC": 4917,
    "\u0120directions": 4918,
    "\u0120hospitalization": 4919,
    "\u0120detecting": 4920,
    "\u0120neutrophils": 4921,
    "\u0120Open": 4922,
    "\u0120GA": 4923,
    "\u0120away": 4924,
    "\u0120eating": 4925,
    "\u0120arrest": 4926,
    "\u0120immunotherapy": 4927,
    "\u0120substances": 4928,
    "\u0120Rem": 4929,
    "\u0120Hydro": 4930,
    "\u0120preferred": 4931,
    "\u0120decades": 4932,
    "\u0120CNS": 4933,
    "\u0120SL": 4934,
    "izer": 4935,
    "\u0120connection": 4936,
    "\u0120sinus": 4937,
    "\u0120eosin": 4938,
    "\u0120utility": 4939,
    "ception": 4940,
    "\u0120Work": 4941,
    "\u0120proportional": 4942,
    "\u0120catheter": 4943,
    "\u0120ethical": 4944,
    "\u0120binary": 4945,
    "\u0120scenarios": 4946,
    "band": 4947,
    "\u0120Quality": 4948,
    "\u0120directed": 4949,
    "\u0120gives": 4950,
    "\u0120distances": 4951,
    "\u0120dispersion": 4952,
    "\u0120burn": 4953,
    "\u0120subjective": 4954,
    "tase": 4955,
    "\u0120ablation": 4956,
    "\u0120tight": 4957,
    "\u0120RF": 4958,
    "\u0120activates": 4959,
    "\u0120travel": 4960,
    "\u0120select": 4961,
    "work": 4962,
    "\u0120causal": 4963,
    "ograms": 4964,
    "factor": 4965,
    "\u0120discovered": 4966,
    "\u0120hydrophobic": 4967,
    "\u0120virulence": 4968,
    "\u0120epithelium": 4969,
    "\u0120differentiated": 4970,
    "\u0120polymorphism": 4971,
    "\u0120screened": 4972,
    "\u0120Bayes": 4973,
    "\u0120yields": 4974,
    "\u0120expressions": 4975,
    "\u0120MAPK": 4976,
    "\u0120walking": 4977,
    "la": 4978,
    "\u0120leak": 4979,
    "Furthermore": 4980,
    "\u0120continue": 4981,
    "\u0120rank": 4982,
    "\u0120interleukin": 4983,
    "\u0120Ret": 4984,
    "viral": 4985,
    "\u0120effector": 4986,
    "\u0120NT": 4987,
    "\u0120MDA": 4988,
    "ulus": 4989,
    "idium": 4990,
    "\u0120purposes": 4991,
    "\u0120matching": 4992,
    "\u0120filtered": 4993,
    "\u0120situations": 4994,
    "\u0120hepatocellular": 4995,
    "\u0120steady": 4996,
    "\u0120agreed": 4997,
    "\u0120principle": 4998,
    "\u0120translocation": 4999,
    "\u0120objects": 5000,
    "otyping": 5001,
    "length": 5002,
    "\u0120maximal": 5003,
    "\u0120HIF": 5004,
    "\u0120exception": 5005,
    "\u0120CAR": 5006,
    "\u0120instability": 5007,
    "\u0120OP": 5008,
    "erate": 5009,
    "\u0120ACE": 5010,
    "\u0120quantity": 5011,
    "\u0120idea": 5012,
    "On": 5013,
    "wave": 5014,
    "\u0120opportunity": 5015,
    "\u0120absent": 5016,
    "\u0120compression": 5017,
    "\u0120deliver": 5018,
    "\u0120tip": 5019,
    "Net": 5020,
    "nia": 5021,
    "review": 5022,
    "\u0120cultural": 5023,
    "\u0120HCV": 5024,
    "\u0120subgroups": 5025,
    "\u0120replaced": 5026,
    "\u0120nonlinear": 5027,
    "\u0120spike": 5028,
    "\u0120blocking": 5029,
    "\u0120apply": 5030,
    "\u0120triple": 5031,
    "\u0120worse": 5032,
    "rocytes": 5033,
    "\u0120property": 5034,
    "\u0120concerning": 5035,
    "\u0120works": 5036,
    "\u0120vision": 5037,
    "\u0120inducing": 5038,
    "\u0120blotting": 5039,
    "\u0120larvae": 5040,
    "step": 5041,
    "\u0120dramatic": 5042,
    "\u0120chol": 5043,
    "\u0120exists": 5044,
    "\u0120metrics": 5045,
    "\u0120assumption": 5046,
    "renal": 5047,
    "\u0120worth": 5048,
    "\u0120Physical": 5049,
    "uan": 5050,
    "\u0120prevalent": 5051,
    "ophosph": 5052,
    "\u0120teaching": 5053,
    "\u0120splicing": 5054,
    "rete": 5055,
    "\u0120Sl": 5056,
    "\u0120net": 5057,
    "\u0120antiviral": 5058,
    "\u0120nom": 5059,
    "ford": 5060,
    "\u0120immediate": 5061,
    "\u0120mTOR": 5062,
    "After": 5063,
    "\u0120epidemic": 5064,
    "\u0120nasal": 5065,
    "\u0120purification": 5066,
    "\u0120stock": 5067,
    "'-": 5068,
    "\u0120principles": 5069,
    "rained": 5070,
    "\u0120tracking": 5071,
    "\u0120AUC": 5072,
    "\u0120Chronic": 5073,
    "\u0120sugar": 5074,
    "\u0120Myc": 5075,
    "\u0120Sigma": 5076,
    "\u0120former": 5077,
    "\u0120trait": 5078,
    "\u0120mir": 5079,
    "points": 5080,
    "\u0120consistency": 5081,
    "\u0120NA": 5082,
    "\u0120ERK": 5083,
    "\u0120blocked": 5084,
    "\u0120peer": 5085,
    "\u0120proton": 5086,
    "\u0120fungi": 5087,
    "\u0120Mark": 5088,
    "\u0120sometimes": 5089,
    "\u0120flexible": 5090,
    "\u0120Future": 5091,
    "plasia": 5092,
    "\u0120propose": 5093,
    "\u0120Tw": 5094,
    "\u0120Diet": 5095,
    "\u0120anesthesia": 5096,
    "\u0120clones": 5097,
    "\u0120SPSS": 5098,
    "\u0120circuit": 5099,
    "\u0120promoted": 5100,
    "\u0120formulation": 5101,
    "\u0120advances": 5102,
    "\u0120degeneration": 5103,
    "\u0120deficits": 5104,
    "\u0120PAR": 5105,
    "\u0120requiring": 5106,
    "\u0120ventilation": 5107,
    "\u0120centrifugation": 5108,
    "\u0120conservation": 5109,
    "\u0120adenocarcinoma": 5110,
    "transferase": 5111,
    "\u0120build": 5112,
    "idin": 5113,
    "anger": 5114,
    "\u0120observational": 5115,
    "\u0120AG": 5116,
    "\u0120depicted": 5117,
    "\u0120infant": 5118,
    "lings": 5119,
    "\u0120aims": 5120,
    "\u0120colony": 5121,
    "\u0120compliance": 5122,
    "\u0120medial": 5123,
    "py": 5124,
    "\u0120Investig": 5125,
    "\u0120discrimination": 5126,
    "\u0120reflects": 5127,
    "\u0120visualized": 5128,
    "La": 5129,
    "\u0120equipment": 5130,
    "\u0120modulate": 5131,
    "\u0120Neuro": 5132,
    "\u0120polymorphisms": 5133,
    "\u0120sclerosis": 5134,
    "\u0120reasonable": 5135,
    "\u0120substantially": 5136,
    "\u0120hearing": 5137,
    "\u0120Food": 5138,
    "\u0120criterion": 5139,
    "\u0120polymers": 5140,
    "\u0120spine": 5141,
    "atories": 5142,
    "\u0120Cox": 5143,
    "\u0120Mann": 5144,
    "\u0120mediate": 5145,
    "\u0120prevents": 5146,
    "\u0120explicit": 5147,
    "\u0120conductivity": 5148,
    "\u0120beads": 5149,
    "\u0120potassium": 5150,
    "\u0120hot": 5151,
    "haps": 5152,
    "\u0120OD": 5153,
    "\u0120comorbidities": 5154,
    "\u0120scans": 5155,
    "\u0120embedded": 5156,
    "\u0120blind": 5157,
    "\u0120lattice": 5158,
    "\u0120exon": 5159,
    "\u0120stiffness": 5160,
    "\u0120TC": 5161,
    "\u0120advance": 5162,
    "\u0120Besides": 5163,
    "\u0120insufficient": 5164,
    "\u0120desired": 5165,
    "\u0120silencing": 5166,
    "\u0120marine": 5167,
    "\u0120CN": 5168,
    "\u0120labeling": 5169,
    "\u0120attachment": 5170,
    "pin": 5171,
    "At": 5172,
    "\u0120manual": 5173,
    "\u0120donors": 5174,
    "\u0120camera": 5175,
    "\u0120conflict": 5176,
    "mentioned": 5177,
    "\u0120suspected": 5178,
    "\u0120activating": 5179,
    "\u0120drive": 5180,
    "phone": 5181,
    "itated": 5182,
    "Seq": 5183,
    "\u0120setup": 5184,
    "\u0120Potential": 5185,
    "infection": 5186,
    "\u0120chloride": 5187,
    "\u0120quantify": 5188,
    "\u0120Huang": 5189,
    "\u0120MG": 5190,
    "\u0120Comparative": 5191,
    "\u0120ND": 5192,
    "\u0120MM": 5193,
    "Results": 5194,
    "\u0120corrected": 5195,
    "\u0120relaxation": 5196,
    "\u0120teeth": 5197,
    "\u0120smart": 5198,
    "\u0120perceptions": 5199,
    "\u0120department": 5200,
    "\u0120homogen": 5201,
    "arum": 5202,
    "\u0120adapted": 5203,
    "\u0120NE": 5204,
    "\u0120gray": 5205,
    "\u0120Rand": 5206,
    "\u0120proved": 5207,
    "\u0120Mel": 5208,
    "\u0120attempt": 5209,
    "\u0120monocytes": 5210,
    "\u0120homolog": 5211,
    "\u0120scoring": 5212,
    "\u0120fitting": 5213,
    "\u0120kDa": 5214,
    "\u0120Pri": 5215,
    "\u0120az": 5216,
    "\u0120Differential": 5217,
    "\u0120Life": 5218,
    "\u0120private": 5219,
    "\u0120automated": 5220,
    "\u0120contamination": 5221,
    "\u0120composites": 5222,
    "\u0120December": 5223,
    "ceptor": 5224,
    "\u0120Phosph": 5225,
    "\u0120attached": 5226,
    "\u0120transcriptome": 5227,
    "\u0120finally": 5228,
    "\u0120bud": 5229,
    "\u0120Hyper": 5230,
    "\u0120Consequently": 5231,
    "\u0120refers": 5232,
    "\u0120sampled": 5233,
    "\u0120valve": 5234,
    "\u0120meat": 5235,
    "\u0120pollution": 5236,
    "\u0120slope": 5237,
    "\u0120cyst": 5238,
    "\u0120upstream": 5239,
    "\u0120incident": 5240,
    "\u0120exhibits": 5241,
    "\u0120Graph": 5242,
    "\u0120combining": 5243,
    "health": 5244,
    "idase": 5245,
    "\u0120drinking": 5246,
    "\u0120emotion": 5247,
    "\u0120adjuvant": 5248,
    "\u0120speech": 5249,
    "\u0120influencing": 5250,
    "\u0120ECM": 5251,
    "\u0120GABA": 5252,
    "\u0120similarly": 5253,
    "\u0120circulation": 5254,
    "\u0120Institutional": 5255,
    "\u0120transplant": 5256,
    "\u0120Commun": 5257,
    "\u0120Laboratory": 5258,
    "\u0120null": 5259,
    "\u0120initiated": 5260,
    "\u0120Gal": 5261,
    "\u0120tumours": 5262,
    "\u0120admitted": 5263,
    "\u0120absorbance": 5264,
    "PAGE": 5265,
    "\u0120Top": 5266,
    "\u0120plasmids": 5267,
    "\u0120converted": 5268,
    "\u0120eligible": 5269,
    "\u0120tension": 5270,
    "\u0120Notably": 5271,
    "\u0120anatomical": 5272,
    "\u0120poorly": 5273,
    "\u0120aid": 5274,
    "\u0120LT": 5275,
    "\u0120methanol": 5276,
    "\u0120indeed": 5277,
    "erior": 5278,
    "\u0120ball": 5279,
    "\u0120asymptomatic": 5280,
    "\u0120knockout": 5281,
    "sensitive": 5282,
    "\u0120auditory": 5283,
    "\u0120secreted": 5284,
    "\u0120Bon": 5285,
    "\u0120OA": 5286,
    "\u0120Its": 5287,
    "\u0120press": 5288,
    "\u0120transporter": 5289,
    "\u0120Growth": 5290,
    "\u0120Lin": 5291,
    "\u0120proven": 5292,
    "\u0120Samples": 5293,
    "\u0120carrier": 5294,
    "\u0120TRP": 5295,
    "\u0120big": 5296,
    "\u0120redox": 5297,
    "\u0120subcutaneous": 5298,
    "\u0120domestic": 5299,
    "\u0120flat": 5300,
    "\u0120Response": 5301,
    "\u0120incorporated": 5302,
    "\u0120increasingly": 5303,
    "\u0120Activity": 5304,
    "\u0120Regarding": 5305,
    "\u0120prominent": 5306,
    "\u0120heating": 5307,
    "\u0120update": 5308,
    "aven": 5309,
    "beta": 5310,
    "\u0120perfusion": 5311,
    "\u0120tubes": 5312,
    "\u0120spleen": 5313,
    "acetyl": 5314,
    "\u0120favorable": 5315,
    "\u0120defense": 5316,
    "\u0120Differences": 5317,
    "\u0120myeloid": 5318,
    "\u0120Considering": 5319,
    "\u0120Kr": 5320,
    "\u0120lungs": 5321,
    "\u0120constraints": 5322,
    "\u0120pigs": 5323,
    "\u0120ecosystem": 5324,
    "\u0120Program": 5325,
    "\u0120Children": 5326,
    "\u0120accepted": 5327,
    "\u0120extreme": 5328,
    "\u0120codes": 5329,
    "\u0120compartment": 5330,
    "\u0120IM": 5331,
    "\u0120Technology": 5332,
    "\u0120CG": 5333,
    "such": 5334,
    "\u0120antibacterial": 5335,
    "\u0120regimen": 5336,
    "planted": 5337,
    "CAT": 5338,
    "\u0120tooth": 5339,
    "\u0120Mart": 5340,
    "\u0120questionnaires": 5341,
    "\u0120industrial": 5342,
    "\u0120implantation": 5343,
    "\u0120detectable": 5344,
    "\u0120esc": 5345,
    "angle": 5346,
    "\u0120strengthen": 5347,
    "\u0120Individual": 5348,
    "\u0120facial": 5349,
    "\u0120reagent": 5350,
    "\u0120switch": 5351,
    "\u0120weighted": 5352,
    "\u0120ect": 5353,
    "\u0120elevation": 5354,
    "\u0120aligned": 5355,
    "\u0120carrying": 5356,
    "\u0120Oct": 5357,
    "\u0120analyzing": 5358,
    "amycin": 5359,
    "\u0120sulfate": 5360,
    "\u0120motifs": 5361,
    "\u0120minimize": 5362,
    "\u0120Asian": 5363,
    "expression": 5364,
    "\u0120GM": 5365,
    "\u0120manifestations": 5366,
    "acin": 5367,
    "\u0120kinetic": 5368,
    "\u0120regulators": 5369,
    "\u0120leaders": 5370,
    "\u0120ages": 5371,
    "\u0120route": 5372,
    "\u0120neutrophil": 5373,
    "assisted": 5374,
    "\u0120\u2423": 5375,
    "\u0120cutoff": 5376,
    "\u0120candidates": 5377,
    "\u0120ma": 5378,
    "\u0120symptomatic": 5379,
    "plicate": 5380,
    "\u0120somatic": 5381,
    "ief": 5382,
    "\u0120transduction": 5383,
    "\u0120concepts": 5384,
    "\u0120contacts": 5385,
    "\u0120LA": 5386,
    "\u0120ET": 5387,
    "\u0120socioeconomic": 5388,
    "\u0120PG": 5389,
    "\u0120stream": 5390,
    "\u0120built": 5391,
    "\u0120predicts": 5392,
    "\u0120pup": 5393,
    "\u0120Japanese": 5394,
    "\u0120circular": 5395,
    "\u0120topic": 5396,
    "\u0120coordination": 5397,
    "\u0120arrows": 5398,
    "\u0120requirement": 5399,
    "otomy": 5400,
    "\u0120NI": 5401,
    "\u0120running": 5402,
    "\u0120Cp": 5403,
    "\u0120ultimately": 5404,
    "\u0120Max": 5405,
    "\u0120modern": 5406,
    "\u0120Index": 5407,
    "\u0120Australia": 5408,
    "\u0120normally": 5409,
    "\u0120Management": 5410,
    "\u0120HO": 5411,
    "\u0120parasite": 5412,
    "\u0120stromal": 5413,
    "\u0120goals": 5414,
    "\u0120Sample": 5415,
    "\u0120benign": 5416,
    "\u0120withdraw": 5417,
    "\u0120Hol": 5418,
    "\u0120deviations": 5419,
    "\u0120expanded": 5420,
    "\u0120Systematic": 5421,
    "\u0120inactivation": 5422,
    "\u0120Funding": 5423,
    "\u0120subtype": 5424,
    "\u0120died": 5425,
    "\u0120emerged": 5426,
    "opoietic": 5427,
    "\u0120correlate": 5428,
    "\u0120Ol": 5429,
    "\u0120exosomes": 5430,
    "\u0120cation": 5431,
    "\u0120race": 5432,
    "yzed": 5433,
    "\u0120gamma": 5434,
    "\u0120mosquito": 5435,
    "aki": 5436,
    "\u0120isoforms": 5437,
    "\u0120shifts": 5438,
    "\u0120panels": 5439,
    "\u0120waves": 5440,
    "\u0120Central": 5441,
    "\u0120complicated": 5442,
    "\u00e3o": 5443,
    "\u0120Cross": 5444,
    "\u0120neither": 5445,
    "\u0120interacts": 5446,
    "\u0120Canada": 5447,
    "\u0120BA": 5448,
    "\u0120conformation": 5449,
    "\u0120That": 5450,
    "\u0120port": 5451,
    "\u0120drought": 5452,
    "\u0120yielded": 5453,
    "\u0120widespread": 5454,
    "\u0120DEGs": 5455,
    "omeric": 5456,
    "\u0120potentials": 5457,
    "\u0120geometry": 5458,
    "\u0120efficiently": 5459,
    "ued": 5460,
    "\u0120mathematic": 5461,
    "pes": 5462,
    "\u0120bus": 5463,
    "\u0120moving": 5464,
    "\u0120glutamate": 5465,
    "\u0120survivors": 5466,
    "\u0120deformation": 5467,
    "ophilic": 5468,
    "\u0120motivation": 5469,
    "\u0120kinases": 5470,
    "\u0120publications": 5471,
    "\u0120interpreted": 5472,
    "\u0120landscape": 5473,
    "\u0120dip": 5474,
    "\u0120scaffolds": 5475,
    "\u0120facility": 5476,
    "\u0120Coll": 5477,
    "\u0120adolescent": 5478,
    "\u0120generalized": 5479,
    "\u0120CVD": 5480,
    "\u0120simply": 5481,
    "born": 5482,
    "\u0120SN": 5483,
    "\u0120scar": 5484,
    "\u0120Real": 5485,
    "\u0120come": 5486,
    "\u0120Intra": 5487,
    "\u0120carriers": 5488,
    "\u0120Black": 5489,
    "\u0120mucosal": 5490,
    "\u0120dehydrogenase": 5491,
    "\u0120wear": 5492,
    "\u0120Baseline": 5493,
    "\u0120LDL": 5494,
    "\u0120radius": 5495,
    "\u0120markedly": 5496,
    "ATP": 5497,
    "\u0120feasibility": 5498,
    "non": 5499,
    "\u0120TS": 5500,
    "\u0120partner": 5501,
    "\u0120breeding": 5502,
    "\u0120CKD": 5503,
    "\u0120percentages": 5504,
    "\u0120inferior": 5505,
    "\u0120Inhibit": 5506,
    "\u0120warm": 5507,
    "\u0120metals": 5508,
    "iger": 5509,
    "\u0120whom": 5510,
    "\u0120raised": 5511,
    "\u0120tor": 5512,
    "\u0120chromosomes": 5513,
    "\u0120look": 5514,
    "\u0120Korea": 5515,
    "\u0120NSCLC": 5516,
    "\u0120reaching": 5517,
    "\u0120orient": 5518,
    "\u0120split": 5519,
    "\u0120examining": 5520,
    "\u0120focusing": 5521,
    "\u0120complementary": 5522,
    "\u0120verify": 5523,
    "\u0120mono": 5524,
    "\u0120Department": 5525,
    "\u0120microorganisms": 5526,
    "teen": 5527,
    "\u0120MB": 5528,
    "\u0120Mass": 5529,
    "\u0120acetyl": 5530,
    "\u0120branch": 5531,
    "\u0120radio": 5532,
    "acryl": 5533,
    "\u0120Pet": 5534,
    "\u0120static": 5535,
    "\u0120needle": 5536,
    "\u0120metabolite": 5537,
    "\u0120caregivers": 5538,
    "\u0120Bal": 5539,
    "\u0120trust": 5540,
    "forming": 5541,
    "\u0120Importantly": 5542,
    "Hg": 5543,
    "frequency": 5544,
    "Moreover": 5545,
    "\u0120institutions": 5546,
    "\u0120ASD": 5547,
    "\u0120tau": 5548,
    "\u0120comprised": 5549,
    "\u0120HBV": 5550,
    "Cas": 5551,
    "\u0120Activation": 5552,
    "\u0120differed": 5553,
    "\u0120city": 5554,
    "\u0120emergence": 5555,
    "\u0120wet": 5556,
    "\u0120substitution": 5557,
    "\u0120ultra": 5558,
    "\u0120surveys": 5559,
    "\u0120zebrafish": 5560,
    "\u0120van": 5561,
    "\u0120acceptable": 5562,
    "\u0120Mice": 5563,
    "\u0120placement": 5564,
    "\u0120squamous": 5565,
    "\u0120Raman": 5566,
    "\u0120sharing": 5567,
    "\u0120Poly": 5568,
    "\u0120tempor": 5569,
    "\u0120frozen": 5570,
    "\u0120hazard": 5571,
    "ading": 5572,
    "\u0120femoral": 5573,
    "\u0120filled": 5574,
    "\u0120senescence": 5575,
    "\u0120DL": 5576,
    "\u0120produces": 5577,
    "\u0120views": 5578,
    "\u0120limiting": 5579,
    "\u0120hydrogel": 5580,
    "\u0120generating": 5581,
    "\u0120Relative": 5582,
    "\u0120accession": 5583,
    "\u0120EV": 5584,
    "\u0120Lys": 5585,
    "\u0120suppresses": 5586,
    "\u0120format": 5587,
    "\u0120macro": 5588,
    "\u0120Imaging": 5589,
    "ously": 5590,
    "\u0120DP": 5591,
    "\u0120cisplatin": 5592,
    "\u0120varies": 5593,
    "glyc": 5594,
    "\u0120overweight": 5595,
    "cious": 5596,
    "\u0120digestion": 5597,
    "\u0120match": 5598,
    "\u0120inverse": 5599,
    "\u0120competition": 5600,
    "\u0120epilepsy": 5601,
    "\u0120complication": 5602,
    "\u0120Da": 5603,
    "\u0120Organization": 5604,
    "\u0120phosphorylated": 5605,
    "lies": 5606,
    "\u0120RE": 5607,
    "\u0120epidemiology": 5608,
    "\u0120GI": 5609,
    "\u0120Random": 5610,
    "\u0120tendency": 5611,
    "\u0120exogenous": 5612,
    "\u0120conclude": 5613,
    "Un": 5614,
    "\u0120else": 5615,
    "\u0120atherosclerosis": 5616,
    "\u0120station": 5617,
    "\u0120considerations": 5618,
    "\u0120plaque": 5619,
    "\u0120hydrolysis": 5620,
    "using": 5621,
    "\u0120schools": 5622,
    "hab": 5623,
    "\u0120colonies": 5624,
    "\u0120registered": 5625,
    "\u0120DMSO": 5626,
    "\u0120astrocytes": 5627,
    "\u0120extensively": 5628,
    "\u0120transitions": 5629,
    "\u0120bring": 5630,
    "\u0120\u2212/\u2212": 5631,
    "adjusted": 5632,
    "\u0120State": 5633,
    "phthal": 5634,
    "\u0120connections": 5635,
    "\u0120fitted": 5636,
    "hn": 5637,
    "\u0120fasting": 5638,
    "\u0120mucosa": 5639,
    "\u0120specified": 5640,
    "\u0120latent": 5641,
    "\u0120pall": 5642,
    "\u0120Evolution": 5643,
    "\u0120proportions": 5644,
    "iding": 5645,
    "\u0120pronounced": 5646,
    "\u0120Sym": 5647,
    "weighted": 5648,
    "\u0120Where": 5649,
    "\u0120Tu": 5650,
    "\u0120recall": 5651,
    "\u0120attenuated": 5652,
    "\u0120critically": 5653,
    "\u0120brown": 5654,
    "\u0120toxin": 5655,
    "\u0120Technologies": 5656,
    "\u0120silica": 5657,
    "\u0120aggressive": 5658,
    "\u0120youth": 5659,
    "\u0120Appendix": 5660,
    "\u0120Cho": 5661,
    "\u0120luciferase": 5662,
    "\u0120concentrated": 5663,
    "\u0120submitted": 5664,
    "\u0120encoded": 5665,
    "NOS": 5666,
    "\u0120selectivity": 5667,
    "quality": 5668,
    "\u0120straight": 5669,
    "\u0120offers": 5670,
    "\u0120dimer": 5671,
    "\u0120Efficacy": 5672,
    "\u0120dopamine": 5673,
    "\u0120Performance": 5674,
    "\u0120Bayesian": 5675,
    "\u0120qPCR": 5676,
    "\u0120resin": 5677,
    "oxygen": 5678,
    "\u0120Aug": 5679,
    "\u0120coated": 5680,
    "No": 5681,
    "\u0120fluctuations": 5682,
    "\u0120sector": 5683,
    "\u0120Treg": 5684,
    "\u0120counted": 5685,
    "human": 5686,
    "\u0120links": 5687,
    "graph": 5688,
    "\u0120endoscopic": 5689,
    "\u0120motility": 5690,
    "\u0120strict": 5691,
    "\u0120relapse": 5692,
    "\u0120participating": 5693,
    "\u0120Third": 5694,
    "perfusion": 5695,
    "\u0120agar": 5696,
    "\u0120label": 5697,
    "\u0120ROC": 5698,
    "\u0120subsets": 5699,
    "\u0120Kaplan": 5700,
    "\u0120silver": 5701,
    "\u0120aeruginosa": 5702,
    "\u0120gall": 5703,
    "light": 5704,
    "Us": 5705,
    "\u0120completion": 5706,
    "tized": 5707,
    "\u0120diets": 5708,
    "\u0120saturation": 5709,
    "\u0120stratified": 5710,
    "\u0120suppressor": 5711,
    "rile": 5712,
    "\u0120RR": 5713,
    "gels": 5714,
    "\u0120inserted": 5715,
    "\u0120trajectory": 5716,
    "\u0120intestine": 5717,
    "\u0120seeded": 5718,
    "\u0120lysates": 5719,
    "\u0120name": 5720,
    "\u0120trace": 5721,
    "\u0120Stress": 5722,
    "\u0120PB": 5723,
    "\u0120quickly": 5724,
    "\u0120RCT": 5725,
    "\u0120GF": 5726,
    "disciplinary": 5727,
    "hind": 5728,
    "\u0120PPAR": 5729,
    "\u0120propagation": 5730,
    "\u0120feasible": 5731,
    "\u0120night": 5732,
    "\u0120Cent": 5733,
    "\u0120diffraction": 5734,
    "\u0120incorporation": 5735,
    "__": 5736,
    "\u0120ART": 5737,
    "\u0120sterile": 5738,
    "\u0120electrophoresis": 5739,
    "\u0120June": 5740,
    "\u0120differentiate": 5741,
    "static": 5742,
    "\u0120Tissue": 5743,
    "\u0120congenital": 5744,
    "\u0120hind": 5745,
    "\u0120embryo": 5746,
    "\u0120fourth": 5747,
    "\u0120modules": 5748,
    "\u0120violence": 5749,
    "\u0120categorized": 5750,
    "\u0120Plant": 5751,
    "\u0120implies": 5752,
    "\u0120picture": 5753,
    "\u0120ubiquitin": 5754,
    "\u0120university": 5755,
    "\u0120microarray": 5756,
    "controlled": 5757,
    "fig": 5758,
    "\u0120intention": 5759,
    "DE": 5760,
    "cons": 5761,
    "stimulated": 5762,
    "\u0120Expl": 5763,
    "\u0120Pal": 5764,
    "\u0120drain": 5765,
    "carb": 5766,
    "\u0120Sex": 5767,
    "\u0120scaling": 5768,
    "\u0120fertil": 5769,
    "\u0120offspring": 5770,
    "\u0120Visual": 5771,
    "\u0120sequenced": 5772,
    "\u0120MSCs": 5773,
    "\u0120rain": 5774,
    "\u0120Level": 5775,
    "\u0120retained": 5776,
    "\u0120edema": 5777,
    "\u0120April": 5778,
    "\u0120Material": 5779,
    "\u0120Mechanisms": 5780,
    "\u0120Pt": 5781,
    "oxin": 5782,
    "\u0120experimentally": 5783,
    "\u0120emissions": 5784,
    "\u0120stimulate": 5785,
    "\u0120MCF": 5786,
    "\u0120lysis": 5787,
    "\u0120confocal": 5788,
    "\u0120DAP": 5789,
    "\u0120invest": 5790,
    "Invitrogen": 5791,
    "\u0120describes": 5792,
    "\u0120molar": 5793,
    "\u0120studying": 5794,
    "\u0120finite": 5795,
    "\u0120deposited": 5796,
    "expressing": 5797,
    "\u0120highlights": 5798,
    "\u0120gait": 5799,
    "alpha": 5800,
    "\u0120estrogen": 5801,
    "\u0120mixing": 5802,
    "Our": 5803,
    "\u0120soy": 5804,
    "\u0120mRNAs": 5805,
    "\u0120chemistry": 5806,
    "\u0120Direct": 5807,
    "\u0120mediators": 5808,
    "\u0120anticancer": 5809,
    "\u0120gal": 5810,
    "\u0120belonging": 5811,
    "hospital": 5812,
    "\u0120capability": 5813,
    "pot": 5814,
    "\u0120matrices": 5815,
    "iasis": 5816,
    "\u0120outpatient": 5817,
    "\u0120interpret": 5818,
    "\u0120modulates": 5819,
    "\u0120grid": 5820,
    "\u0120densities": 5821,
    "\u0120Salmon": 5822,
    "\u0120rear": 5823,
    "\u0120abuse": 5824,
    "\u0120pylori": 5825,
    "\u0120universal": 5826,
    "\u0120cattle": 5827,
    "\u0120angles": 5828,
    "\u0120viable": 5829,
    "\u0120felt": 5830,
    "\u0120crystals": 5831,
    "\u0120hemorrhage": 5832,
    "\u0120overlapping": 5833,
    "\u0120scored": 5834,
    "coated": 5835,
    "\u0120imag": 5836,
    "\u0120Rab": 5837,
    "\u0120intensities": 5838,
    "\u0120programme": 5839,
    "\u0120Enter": 5840,
    "\u0120coordinates": 5841,
    "\u0120Den": 5842,
    "\u0120Gaussian": 5843,
    "\u0120security": 5844,
    "\u0120West": 5845,
    "\u0120Bcl": 5846,
    "\u0120CRP": 5847,
    "\u0120remote": 5848,
    "shaped": 5849,
    "response": 5850,
    "osing": 5851,
    "\u0120corneal": 5852,
    "\u0120readily": 5853,
    "\u0120agonist": 5854,
    "\u0120encephal": 5855,
    "\u0120popular": 5856,
    "\u0120stir": 5857,
    "\u0120ocular": 5858,
    "\u0120exploration": 5859,
    "\u0120EM": 5860,
    "\u0120stent": 5861,
    "\u0120fermentation": 5862,
    "\u0120cognition": 5863,
    "\u0120atomic": 5864,
    "\u0120Gram": 5865,
    "play": 5866,
    "\u0120prescribed": 5867,
    "\u0120decomposition": 5868,
    "\u0120Soft": 5869,
    "\u0120mapped": 5870,
    "\u0120trajectories": 5871,
    "\u0120apical": 5872,
    "\u0120docking": 5873,
    "\u0120sand": 5874,
    "\u0120hybridization": 5875,
    "\u0120GST": 5876,
    "\u0120adsorb": 5877,
    "\u0120dosage": 5878,
    "\u0120MF": 5879,
    "\u0120provision": 5880,
    "bean": 5881,
    "\u0120washing": 5882,
    "\u0120lengths": 5883,
    "\u0120passive": 5884,
    "\u0120validate": 5885,
    "\u0120parasites": 5886,
    "\u0120downregulation": 5887,
    "\u0120reproduction": 5888,
    "Additionally": 5889,
    "\u0120instruments": 5890,
    "\u0120hoc": 5891,
    "\u0120camp": 5892,
    "\u0120concrete": 5893,
    "\u0120HEK": 5894,
    "\u0120thresholds": 5895,
    "\u0120opening": 5896,
    "Bi": 5897,
    "\u0120resilience": 5898,
    "borne": 5899,
    "\u0120Chi": 5900,
    "\u0120reward": 5901,
    "\u0120utilizing": 5902,
    "\u0120bin": 5903,
    "\u0120cement": 5904,
    "\u0120linkage": 5905,
    "\u0120lobe": 5906,
    "uate": 5907,
    "\u0120atrophy": 5908,
    "\u0120spent": 5909,
    "\u0120rules": 5910,
    "\u0120cellulose": 5911,
    "operatively": 5912,
    "\u0120suicide": 5913,
    "\u0120considerably": 5914,
    "\u0120charged": 5915,
    "\u0120HU": 5916,
    "\u0120HPLC": 5917,
    "ographs": 5918,
    "\u0120covariates": 5919,
    "\u0120society": 5920,
    "\u0120SG": 5921,
    "\u0120traumatic": 5922,
    "place": 5923,
    "feeding": 5924,
    "\u0120Akt": 5925,
    "\u0120precipitation": 5926,
    "\u0120Natural": 5927,
    "\u0120regarded": 5928,
    "\u0120committee": 5929,
    "\u0120eggs": 5930,
    "'.": 5931,
    "\u0120modelling": 5932,
    "Conclusion": 5933,
    "\u0120edges": 5934,
    "illa": 5935,
    "\u0120Zhou": 5936,
    "\u0120MHC": 5937,
    "\u0120thorough": 5938,
    "has": 5939,
    "\u0120proinflammatory": 5940,
    "\u0120nitric": 5941,
    "\u0120preterm": 5942,
    "\u0120PU": 5943,
    "\u0120RMS": 5944,
    "\u0120Number": 5945,
    "\u0120bor": 5946,
    "\u0120convolution": 5947,
    "\u0120symmetry": 5948,
    "\u0120incomplete": 5949,
    "\u0120files": 5950,
    "\u0120rarely": 5951,
    "\u0120entropy": 5952,
    "\u0120Mid": 5953,
    "\u0120neighbor": 5954,
    "\u0120stain": 5955,
    "\u0120Once": 5956,
    "\u0120taxa": 5957,
    "\u0120(\"": 5958,
    "\u0120experts": 5959,
    "\u0120UC": 5960,
    "\u0120intended": 5961,
    "\u0120Taken": 5962,
    "\u0120reactivity": 5963,
    "\u0120Within": 5964,
    "\u0120HDL": 5965,
    "\u0120diagnoses": 5966,
    "\u0120Environment": 5967,
    "\u0120offered": 5968,
    "\u0120participated": 5969,
    "ource": 5970,
    "\u0120lactate": 5971,
    "\u0120gram": 5972,
    "\u0120EMT": 5973,
    "\u0120Six": 5974,
    "\u0120identifies": 5975,
    "\u0120America": 5976,
    "functional": 5977,
    "\u0120aggregates": 5978,
    "\u0120gels": 5979,
    "\u0120Bacter": 5980,
    "\u0120Through": 5981,
    "house": 5982,
    "\u0120preferences": 5983,
    "\u0120Zhao": 5984,
    "\u0120hemoglobin": 5985,
    "mental": 5986,
    "\u0120hundred": 5987,
    "\u0120acting": 5988,
    "\u0120Iran": 5989,
    "\u0120Normal": 5990,
    "\u0120sun": 5991,
    "\u0120Preparation": 5992,
    "\u0120John": 5993,
    "\u0120CDK": 5994,
    "\u0120patch": 5995,
    "\u0120Fin": 5996,
    "\u0120lock": 5997,
    "\u0120injections": 5998,
    "\u0120accessible": 5999,
    "\u0120dissection": 6000,
    "\u0120answer": 6001,
    "\u0120shed": 6002,
    "Although": 6003,
    "\u0120Der": 6004,
    "\u0120helpful": 6005,
    "\u0120antitumor": 6006,
    "\u0120operations": 6007,
    "su": 6008,
    "\u0120Cy": 6009,
    "\u0120concurrent": 6010,
    "word": 6011,
    "\u0120Cas": 6012,
    "\u0120PEG": 6013,
    "\u0120EF": 6014,
    "poration": 6015,
    "\u0120paradigm": 6016,
    "\u0120Italy": 6017,
    "\u0120behind": 6018,
    "\u0120MET": 6019,
    "\u0120greatest": 6020,
    "\u0120birds": 6021,
    "\u0120capillary": 6022,
    "\u0120lumbar": 6023,
    "\u0120TT": 6024,
    "\u0120malignancy": 6025,
    "guided": 6026,
    "\u0120expert": 6027,
    "\u0120phenolic": 6028,
    "\u0120border": 6029,
    "tory": 6030,
    "\u0120Abs": 6031,
    "\u0120EA": 6032,
    "Thus": 6033,
    "\u0120organizations": 6034,
    "\u0120elimination": 6035,
    "\u0120custom": 6036,
    "Cell": 6037,
    "\u0120achieving": 6038,
    "\u0120accounted": 6039,
    "\u0120plas": 6040,
    "\u0120teachers": 6041,
    "adic": 6042,
    "stable": 6043,
    "\u0120bis": 6044,
    "\u0120TEM": 6045,
    "idic": 6046,
    "\u0120eventually": 6047,
    "operation": 6048,
    "\u0120powerful": 6049,
    "\u0120margin": 6050,
    "\u0120Five": 6051,
    "\u0120consequently": 6052,
    "\u0120SB": 6053,
    "\u0120unlikely": 6054,
    "\u0120closure": 6055,
    "\u0120Sciences": 6056,
    "\u0120Diff": 6057,
    "\u0120emotions": 6058,
    "\u0120crude": 6059,
    "\u0120necessarily": 6060,
    "\u0120Virus": 6061,
    "\u0120denotes": 6062,
    "\u0120scope": 6063,
    "\u0120individ": 6064,
    "formin": 6065,
    "\u0120mimic": 6066,
    "CGA": 6067,
    "\u0120DD": 6068,
    "\u0120giving": 6069,
    "\u0120sought": 6070,
    "\u0120magnification": 6071,
    "\u0120GTP": 6072,
    "\u0120glutathione": 6073,
    "\u0120Values": 6074,
    "iled": 6075,
    "\u0120EDTA": 6076,
    "square": 6077,
    "\u0120normalization": 6078,
    "\u0120meaningful": 6079,
    "\u0120stake": 6080,
    "\u0120vulnerable": 6081,
    "\u0120transmembrane": 6082,
    "\u0120detector": 6083,
    "\u0120Before": 6084,
    "Meier": 6085,
    "\u0120mer": 6086,
    "Whitney": 6087,
    "\u0120arb": 6088,
    "\u0120currents": 6089,
    "\u0120swelling": 6090,
    "\u0120autism": 6091,
    "\u0120elongation": 6092,
    "\u0120lifetime": 6093,
    "\u0120promotion": 6094,
    "score": 6095,
    "\u0120Comm": 6096,
    "can": 6097,
    "\u0120Sing": 6098,
    "\u0120creating": 6099,
    "income": 6100,
    "\u0120ns": 6101,
    "\u0120perhaps": 6102,
    "\u0120cascade": 6103,
    "\u0120epidermal": 6104,
    "\u0120maize": 6105,
    "\u0120sequential": 6106,
    "\u0120alveolar": 6107,
    "\u0120hospitalized": 6108,
    "\u0120wood": 6109,
    "\u0120IT": 6110,
    "\u0120steel": 6111,
    "\u0120Salmonella": 6112,
    "\u0120guideline": 6113,
    "mid": 6114,
    "\u0120fibrin": 6115,
    "\u0120cues": 6116,
    "\u0120inherent": 6117,
    "\u0120revision": 6118,
    "\u0120chart": 6119,
    "\u0120Heart": 6120,
    "reports": 6121,
    "\u0120gaps": 6122,
    "\u0120usual": 6123,
    "\u0120homologous": 6124,
    "bone": 6125,
    "\u0120derivative": 6126,
    "\u0120BRCA": 6127,
    "\u0120Systems": 6128,
    "\u0120facilitates": 6129,
    "\u0120discrete": 6130,
    "\u0120energies": 6131,
    "\u0120Asia": 6132,
    "\u0120Application": 6133,
    "ERS": 6134,
    "\u0120extend": 6135,
    "\u0120held": 6136,
    "\u0120locally": 6137,
    "\u0120inputs": 6138,
    "\u0120revised": 6139,
    "\u0120structured": 6140,
    "\u0120HE": 6141,
    "\u0120rupture": 6142,
    "\u0120Classification": 6143,
    "\u0120acidic": 6144,
    "\u0120bath": 6145,
    "\u0120approximation": 6146,
    "\u0120phage": 6147,
    "\u0120learn": 6148,
    "hyper": 6149,
    "\u0120ever": 6150,
    "\u0120exclusively": 6151,
    "\u0120woman": 6152,
    "\u0120insurance": 6153,
    "\u0120Survey": 6154,
    "\u0120Public": 6155,
    "Ws": 6156,
    "\u0120signatures": 6157,
    "\u0120arteries": 6158,
    "\u0120Diabetes": 6159,
    "\u0120obtaining": 6160,
    "\u0120dialysis": 6161,
    "ortion": 6162,
    "\u0120Understanding": 6163,
    "Na": 6164,
    "\u0120regime": 6165,
    "\u0120anemia": 6166,
    "\u0120lamin": 6167,
    "\u0120carefully": 6168,
    "\u0120RV": 6169,
    "\u0120moist": 6170,
    "aemia": 6171,
    "\u0120updated": 6172,
    "ishing": 6173,
    "\u0120frames": 6174,
    "\u0120request": 6175,
    "\u0120Demographic": 6176,
    "electric": 6177,
    "\u0120recognize": 6178,
    "\u0120switching": 6179,
    "\u0120sea": 6180,
    "\u0120physiology": 6181,
    "\u0120systolic": 6182,
    "\u0120MV": 6183,
    "\u0120spor": 6184,
    "\u0120Deep": 6185,
    "\u0120glycoprotein": 6186,
    "\u0120occupational": 6187,
    "\u0120Key": 6188,
    "\u0120spot": 6189,
    "\u0120thrombosis": 6190,
    "ococcal": 6191,
    "Methods": 6192,
    "\u0120antagonist": 6193,
    "\u0120Specific": 6194,
    "\u0120descriptive": 6195,
    "ulator": 6196,
    "rocyte": 6197,
    "\u0120organism": 6198,
    "\u0120progenitor": 6199,
    "\u0120naturally": 6200,
    "\u0120mt": 6201,
    "\u0120prevented": 6202,
    "\u0120Pb": 6203,
    "\u0120relations": 6204,
    "\u0120centre": 6205,
    "\u0120slides": 6206,
    "\u0120hormones": 6207,
    "\u0120attend": 6208,
    "\u0120named": 6209,
    "\u0120FP": 6210,
    "\u0120individually": 6211,
    "\u0120dots": 6212,
    "\u0120Quantification": 6213,
    "\u0120Supporting": 6214,
    "arts": 6215,
    "\u0120serine": 6216,
    "\u0120perfect": 6217,
    "\u0120humidity": 6218,
    "conjugated": 6219,
    "bilities": 6220,
    "\u0120assist": 6221,
    "\u0120mood": 6222,
    "\u0120microscopic": 6223,
    "\u0120GAP": 6224,
    "\u0120sick": 6225,
    "\u0120ethics": 6226,
    "\u0120indication": 6227,
    "\u0120alteration": 6228,
    "omorph": 6229,
    "\u0120checkpoint": 6230,
    "\u0120Outcomes": 6231,
    "\u0120inoculated": 6232,
    "site": 6233,
    "\u0120chitosan": 6234,
    "\u0120Ang": 6235,
    "\u0120contraction": 6236,
    "\u0120premature": 6237,
    "\u0120conformational": 6238,
    "\u0120creatinine": 6239,
    "\u0120PCA": 6240,
    "\u0120coping": 6241,
    "olate": 6242,
    "\u0120describing": 6243,
    "\u0120annotated": 6244,
    "\u0120aromatic": 6245,
    "\u0120Signaling": 6246,
    "\u0120lymphocyte": 6247,
    "\u0120additive": 6248,
    "\u0120Clin": 6249,
    "iation": 6250,
    "\u0120hierarchical": 6251,
    "\u0120bioactive": 6252,
    "\u0120starch": 6253,
    "phenyl": 6254,
    "\u0120turnover": 6255,
    "\u0120themes": 6256,
    "abin": 6257,
    "\u0120dead": 6258,
    "\u0120fair": 6259,
    "\u0120resuspended": 6260,
    "\u0120girls": 6261,
    "\u0120Mes": 6262,
    "\u0120Log": 6263,
    "\u0120concomitant": 6264,
    "\u0120Fib": 6265,
    "\u0120strand": 6266,
    "\u0120beliefs": 6267,
    "\u0120FGF": 6268,
    "\u0120RB": 6269,
    "\u0120Question": 6270,
    "\u0120equipped": 6271,
    "del": 6272,
    "\u0120Phy": 6273,
    "::": 6274,
    "SMA": 6275,
    "\u0120Cycl": 6276,
    "\u0120Accordingly": 6277,
    "\u0120sham": 6278,
    "responsive": 6279,
    "inator": 6280,
    "\u0120codon": 6281,
    "\u0120vaginal": 6282,
    "\u0120Biological": 6283,
    "\u0120correctly": 6284,
    "\u0120microRNA": 6285,
    "cancer": 6286,
    "\u0120optic": 6287,
    "\u0120contexts": 6288,
    "\u0120schematic": 6289,
    "\u0120triggered": 6290,
    "orus": 6291,
    "effective": 6292,
    "diagn": 6293,
    "\u0120episodes": 6294,
    "\u0120Safety": 6295,
    "\u0120Pseudomonas": 6296,
    "\u0120steroid": 6297,
    "\u0120circles": 6298,
    "\u0120filtration": 6299,
    "\u0120implants": 6300,
    "\u0120displays": 6301,
    "\u0120ventral": 6302,
    "\u0120distant": 6303,
    "hand": 6304,
    "\u0120viscosity": 6305,
    "\u0120sustainable": 6306,
    "\u0120dox": 6307,
    "\u0120East": 6308,
    "\u0120boundaries": 6309,
    "\u0120SOD": 6310,
    "nes": 6311,
    "\u0120canal": 6312,
    "\u0120meeting": 6313,
    "\u0120nutrients": 6314,
    "\u0120vacuum": 6315,
    "\u0120BSA": 6316,
    "\u0120conserv": 6317,
    "\u0120gestational": 6318,
    "\u0120BMP": 6319,
    "\u0120copies": 6320,
    "\u0120draft": 6321,
    "\u0120agricultural": 6322,
    "\u0120modulus": 6323,
    "\u0120stenosis": 6324,
    "\u0120mutated": 6325,
    "\u0120Water": 6326,
    "\u0120marginal": 6327,
    "ionic": 6328,
    "\u0120cyan": 6329,
    "\u0120losses": 6330,
    "\u0120portal": 6331,
    "ocular": 6332,
    "\u0120eigen": 6333,
    "ado": 6334,
    "\u0120circadian": 6335,
    "\u0120chemicals": 6336,
    "\u0120opioid": 6337,
    "\u0120ester": 6338,
    "\u0120radial": 6339,
    "\u0120reagents": 6340,
    "\u0120Measurement": 6341,
    "\u0120etiology": 6342,
    "Rad": 6343,
    "\u0120Fu": 6344,
    "\u0120hr": 6345,
    "\u0120reservoir": 6346,
    "\u0120keratin": 6347,
    "\u0120crisis": 6348,
    "\u0120pretreatment": 6349,
    "modified": 6350,
    "\u0120recipients": 6351,
    "\u0120inference": 6352,
    "\u0120platforms": 6353,
    "\u0120rub": 6354,
    "\u0120Sa": 6355,
    "\u0120preventive": 6356,
    "\u0120mesh": 6357,
    "\u0120adjusting": 6358,
    "retion": 6359,
    "\u0120persistence": 6360,
    "\u0120owing": 6361,
    "\u0120lith": 6362,
    "\u0120King": 6363,
    "black": 6364,
    "\u0120trade": 6365,
    "\u0120retina": 6366,
    "\u0120definitions": 6367,
    "\u0120cirrhosis": 6368,
    "oses": 6369,
    "\u0120served": 6370,
    "\u0120Statement": 6371,
    "inus": 6372,
    "\u0120prescription": 6373,
    "\u0120ZnO": 6374,
    "\u0120attributes": 6375,
    "\u0120carotid": 6376,
    "\u0120tertiary": 6377,
    "\u0120porous": 6378,
    "\u0120AV": 6379,
    "\u0120Prof": 6380,
    "ager": 6381,
    "directed": 6382,
    "\u0120Sr": 6383,
    "\u0120comprising": 6384,
    "\u0120dense": 6385,
    "ifies": 6386,
    "\u0120pseudo": 6387,
    "\u0120promoters": 6388,
    "\u0120cyclic": 6389,
    "\u0120personality": 6390,
    "\u0120confounding": 6391,
    "\u0120Significant": 6392,
    "\u0120Found": 6393,
    "\u0120Transcription": 6394,
    "\u0120anc": 6395,
    "\u0120Meanwhile": 6396,
    "orp": 6397,
    "\u0120Validation": 6398,
    "\u0120solar": 6399,
    "\u0120slices": 6400,
    "\u0120cysteine": 6401,
    "\u0120Rho": 6402,
    "\u0120Rapid": 6403,
    "\u0120Lung": 6404,
    "\u0120reader": 6405,
    "\u0120occlusion": 6406,
    "\u0120partly": 6407,
    "TB": 6408,
    "\u0120abilities": 6409,
    "\u0120Prob": 6410,
    "\u0120irregular": 6411,
    "\u0120preclinical": 6412,
    "\u0120competing": 6413,
    "\u0120afford": 6414,
    "\u0120TRI": 6415,
    "\u0120Declaration": 6416,
    "\u0120say": 6417,
    "\u0120Liver": 6418,
    "\u0120remission": 6419,
    "\u0120repeats": 6420,
    "\u0120manage": 6421,
    "\u0120registration": 6422,
    "\u0120Alex": 6423,
    "\u0120ends": 6424,
    "\u0120assumptions": 6425,
    "\u0120Immune": 6426,
    "\u0120wells": 6427,
    "\u0120somewhat": 6428,
    "\u0120stomach": 6429,
    "\u0120Surface": 6430,
    "lipid": 6431,
    "\u0120productivity": 6432,
    "\u0120removing": 6433,
    "\u0120chance": 6434,
    "\u0120dissociation": 6435,
    "\u0120willing": 6436,
    "\u0120Ir": 6437,
    "\u0120regimens": 6438,
    "\u0120ionic": 6439,
    "oblasts": 6440,
    "layer": 6441,
    "\u0120blockade": 6442,
    "oting": 6443,
    "\u0120fruits": 6444,
    "\u0120checked": 6445,
    "\u0120pathophysiology": 6446,
    "\u0120Body": 6447,
    "\u0120accounting": 6448,
    "\u0120acceptance": 6449,
    "\u0120nation": 6450,
    "onset": 6451,
    "\u0120Experiment": 6452,
    "\u0120Complex": 6453,
    "\u0120Cs": 6454,
    "\u0120suffering": 6455,
    "\u0120Genes": 6456,
    "\u0120Population": 6457,
    "\u0120tensile": 6458,
    "\u0120athletes": 6459,
    "\u0120recover": 6460,
    "\u0120formulations": 6461,
    "\u0120pneumoniae": 6462,
    "\u0120attempts": 6463,
    "\u0120Therapy": 6464,
    "\u0120traffic": 6465,
    "\u0120Consistent": 6466,
    "\u0120Gold": 6467,
    "\u0120modalities": 6468,
    "aze": 6469,
    "\u0120anis": 6470,
    "\u0120crack": 6471,
    "\u0120SY": 6472,
    "\u0120contrary": 6473,
    "\u0120NY": 6474,
    "\u0120triplicate": 6475,
    "\u0120fecal": 6476,
    "\u0120Short": 6477,
    "\u0120EVs": 6478,
    "SV": 6479,
    "qPCR": 6480,
    "\u0120fibroblast": 6481,
    "\u0120France": 6482,
    "\u0120activator": 6483,
    "\u0120recordings": 6484,
    "\u0120Smith": 6485,
    "\u0120collect": 6486,
    "\u0120cooling": 6487,
    "\u0120manually": 6488,
    "\u0120Diagnosis": 6489,
    "\u0120homogeneous": 6490,
    "\u0120transmitted": 6491,
    "vian": 6492,
    "\u0120ambient": 6493,
    "\u0120Ki": 6494,
    "\u0120allergic": 6495,
    "\u0120insect": 6496,
    "\u0120incision": 6497,
    "\u0120collaboration": 6498,
    "arian": 6499,
    "\u0120manipulation": 6500,
    "\u0120reversed": 6501,
    "\u0120behaviours": 6502,
    "\u0120Super": 6503,
    "\u0120shoulder": 6504,
    "\u0120geographic": 6505,
    "\u0120colour": 6506,
    "\u0120mammals": 6507,
    "\u0120LP": 6508,
    "\u0120shell": 6509,
    "\u0120Women": 6510,
    "\u0120triggers": 6511,
    "ethylene": 6512,
    "\u0120computation": 6513,
    "\u0120genetics": 6514,
    "\u0120inte": 6515,
    "oarthritis": 6516,
    "\u0120pixel": 6517,
    "\u0120clock": 6518,
    "ocor": 6519,
    "ptic": 6520,
    "\u0120accounts": 6521,
    "\u0120Process": 6522,
    "\u0120Proper": 6523,
    "throughput": 6524,
    "\u0120players": 6525,
    "\u0120Kar": 6526,
    "\u0120doctors": 6527,
    "\u0120HDAC": 6528,
    "\u0120nurse": 6529,
    "cs": 6530,
    "ostatic": 6531,
    "\u0120interests": 6532,
    "\u0120Pi": 6533,
    "\u0120oxidase": 6534,
    "\u0120Part": 6535,
    "\u0120examinations": 6536,
    "cam": 6537,
    "atinib": 6538,
    "iated": 6539,
    "\u0120peroxidase": 6540,
    "\u0120planned": 6541,
    "\u0120malignancies": 6542,
    "\u0120tur": 6543,
    "\u0120cerevisiae": 6544,
    "\u0120pelvic": 6545,
    "\u0120colitis": 6546,
    "\u0120Determination": 6547,
    "\u0120College": 6548,
    "\u0120habitat": 6549,
    "processing": 6550,
    "\u0120randomised": 6551,
    "\u0120mathematical": 6552,
    "\u0120chromosomal": 6553,
    "\u0120TI": 6554,
    "Sm": 6555,
    "\u0120selectively": 6556,
    "\u0120mouth": 6557,
    "\u0120hematopoietic": 6558,
    "\u0120helps": 6559,
    "\u0120coherence": 6560,
    "\u0120TCR": 6561,
    "\u0120genetically": 6562,
    "\u0120Prior": 6563,
    "\u0120remarkable": 6564,
    "One": 6565,
    "\u0120Ah": 6566,
    "\u0120BAL": 6567,
    "\u0120sufficiently": 6568,
    "\u0120bench": 6569,
    "\u0120households": 6570,
    "\u0120cytochrome": 6571,
    "\u0120confer": 6572,
    "\u0120Healthcare": 6573,
    "\u0120DI": 6574,
    "\u0120chicken": 6575,
    "\u0120employees": 6576,
    "\u0120capital": 6577,
    "\u0120immunization": 6578,
    "Br": 6579,
    "\u0120Nrf": 6580,
    "\u0120Statistics": 6581,
    "\u0120obstruction": 6582,
    "\u0120want": 6583,
    "\u0120stabilization": 6584,
    "\u0120OCT": 6585,
    "\u0120aerobic": 6586,
    "\u0120glycerol": 6587,
    "\u0120thoracic": 6588,
    "\u0120Diagnostic": 6589,
    "tz": 6590,
    "MAP": 6591,
    "\u0120closer": 6592,
    "oides": 6593,
    "plastic": 6594,
    "\u0120intelligence": 6595,
    "\u0120integrin": 6596,
    "\u0120hydrogels": 6597,
    "\u0120employment": 6598,
    "When": 6599,
    "\u0120encompass": 6600,
    "\u0120elegans": 6601,
    "\u0120DH": 6602,
    "\u0120silicon": 6603,
    "\u0120Factor": 6604,
    "\u0120preserved": 6605,
    "\u0120familiar": 6606,
    "\u0120consumed": 6607,
    "\u0120graphs": 6608,
    "\u0120CAD": 6609,
    "\u0120laparoscopic": 6610,
    "\u0120arms": 6611,
    "\u0120See": 6612,
    "\u0120Survival": 6613,
    "Pad": 6614,
    "\u0120objectives": 6615,
    "\u0120chi": 6616,
    "\u0120elsewhere": 6617,
    "\u0120IBD": 6618,
    "\u0120colonization": 6619,
    "\u0120retrieved": 6620,
    "\u0120acoustic": 6621,
    "\u0120hosts": 6622,
    "\u0120September": 6623,
    "\u0120os": 6624,
    "print": 6625,
    "\u0120Metabolic": 6626,
    "\u0120board": 6627,
    "uity": 6628,
    "\u0120cloud": 6629,
    "\u0120modulating": 6630,
    "\u0120electrons": 6631,
    "map": 6632,
    "forward": 6633,
    "\u0120operator": 6634,
    "\u0120diarrhea": 6635,
    "\u0120FC": 6636,
    "\u0120smokers": 6637,
    "\u0120serial": 6638,
    "\u0120attitude": 6639,
    "\u0120libraries": 6640,
    "\u0120carbohydrate": 6641,
    "\u0120hypotheses": 6642,
    "ploid": 6643,
    "\u0120screw": 6644,
    "existing": 6645,
    "\u0120PBM": 6646,
    "abine": 6647,
    "\u0120latency": 6648,
    "\u0120Isolation": 6649,
    "\u0120demands": 6650,
    "\u0120solubility": 6651,
    "\u0120confirming": 6652,
    "\u0120FOX": 6653,
    "\u0120Mitochondrial": 6654,
    "\u0120genera": 6655,
    "\u0120atmosphere": 6656,
    "\u0120Journal": 6657,
    "\u0120Zhu": 6658,
    "\u0120decade": 6659,
    "\u0120Conversely": 6660,
    "\u0120EG": 6661,
    "\u0120Currently": 6662,
    "apoptotic": 6663,
    "\u0120serves": 6664,
    "\u0120Bacterial": 6665,
    "\u0120CCL": 6666,
    "\u0120carboxyl": 6667,
    "\")": 6668,
    "\u0120synergistic": 6669,
    "\u0120clinics": 6670,
    "\u0120tendon": 6671,
    "\u0120dashed": 6672,
    "\u0120QTL": 6673,
    "\u0120cutaneous": 6674,
    "\u0120Full": 6675,
    "\u0120transporters": 6676,
    "\u0120goat": 6677,
    "osarcoma": 6678,
    "\u0120cloned": 6679,
    "\u0120hepatocytes": 6680,
    "ogenes": 6681,
    "erating": 6682,
    "\u0120rheumatoid": 6683,
    "\u0120perfor": 6684,
    "\u0120GD": 6685,
    "\u0120cities": 6686,
    "\u0120cystic": 6687,
    "\u0120branches": 6688,
    "\u0120sheep": 6689,
    "\u0120HB": 6690,
    "\u0120divergence": 6691,
    "\u0120encodes": 6692,
    "urable": 6693,
    "\u0120October": 6694,
    "\u0120exclude": 6695,
    "\u0120damaged": 6696,
    "\u0120penetration": 6697,
    "\u0120deform": 6698,
    "\u0120exploring": 6699,
    "domain": 6700,
    "\u0120illustrates": 6701,
    "\u0120?": 6702,
    "pend": 6703,
    "\u0120AN": 6704,
    "\u0120sports": 6705,
    "\u0120strengths": 6706,
    "\u0120Targeting": 6707,
    "\u0120Cop": 6708,
    "\u0120GH": 6709,
    "\u0120reflecting": 6710,
    "\u0120Cellular": 6711,
    "\u0120August": 6712,
    "itter": 6713,
    "\u0120herb": 6714,
    "\u0120Vacc": 6715,
    "\u0120endocrine": 6716,
    "\u0120eliminate": 6717,
    "\u0120stresses": 6718,
    "\u0120bearing": 6719,
    "\u0120CCR": 6720,
    "\u0120Learning": 6721,
    "\u0120FBS": 6722,
    "\u0120precursors": 6723,
    "\u0120VA": 6724,
    "\u0120ECG": 6725,
    "\u0120constants": 6726,
    "\u0120lockdown": 6727,
    "\u0120broader": 6728,
    "\u0120enabled": 6729,
    "\u0120road": 6730,
    "\u0120him": 6731,
    "\u0120RO": 6732,
    "\u0120Notch": 6733,
    "\u0120spring": 6734,
    "\u0120establishment": 6735,
    "\u0120Main": 6736,
    "\u0120managed": 6737,
    "\u0120COX": 6738,
    "\u0120Local": 6739,
    "\u0120institution": 6740,
    "\u0120estimating": 6741,
    "\u0120platelets": 6742,
    "\u0120alloy": 6743,
    "\u0120MW": 6744,
    "\u0120AML": 6745,
    "\u0120NMD": 6746,
    "\u0120intense": 6747,
    "\u0120reductions": 6748,
    "\u0120HM": 6749,
    "\u0120trafficking": 6750,
    "\u0120GE": 6751,
    "\u0120seconds": 6752,
    "\u0120filtering": 6753,
    "world": 6754,
    "nis": 6755,
    "ony": 6756,
    "\u0120seizures": 6757,
    "\u0120modulated": 6758,
    "\u0120proximity": 6759,
    "\u0120designs": 6760,
    "\u0120phenomena": 6761,
    "\u0120transverse": 6762,
    "\u0120permanent": 6763,
    "\u0120preparations": 6764,
    "\u0120uterine": 6765,
    "inance": 6766,
    "\u0120Ak": 6767,
    "\u0120oscillations": 6768,
    "culture": 6769,
    "\u0120fire": 6770,
    "\u0120Pf": 6771,
    "sided": 6772,
    "\u0120Oral": 6773,
    "\u0120calculating": 6774,
    "\u0120RD": 6775,
    "\u0120Arg": 6776,
    "\u0120Brown": 6777,
    "ilization": 6778,
    "\u0120Young": 6779,
    "tagged": 6780,
    "\u0120Overview": 6781,
    "\u0120behavioural": 6782,
    "\u0120GSE": 6783,
    "\u0120alkaline": 6784,
    "\u0120IU": 6785,
    "fulness": 6786,
    "\u0120reticulum": 6787,
    "\u0120permission": 6788,
    "\u0120reflection": 6789,
    "\u0120brom": 6790,
    "\u0120Sk": 6791,
    "\u0120volunteers": 6792,
    "\u0120learned": 6793,
    "\u0120Camp": 6794,
    "\u0120phenyl": 6795,
    "\u0120Acid": 6796,
    "\u0120tick": 6797,
    "\u0120competitive": 6798,
    "\u0120practitioners": 6799,
    "\u0120bright": 6800,
    "\u0120plans": 6801,
    "\u0120polymerization": 6802,
    "\u0120Does": 6803,
    "\u0120innovation": 6804,
    "amer": 6805,
    "\u0120grey": 6806,
    "\u0120lag": 6807,
    "\u0120prone": 6808,
    "\u0120droplets": 6809,
    "\u0120NLRP": 6810,
    "\u0120interstitial": 6811,
    "\u0120engage": 6812,
    "\u0120elucidate": 6813,
    "\u0120game": 6814,
    "Additional": 6815,
    "\u0120stimulates": 6816,
    "protective": 6817,
    "anda": 6818,
    "\u0120AMPK": 6819,
    "\u0120BT": 6820,
    "\u0120EB": 6821,
    "\u0120exposures": 6822,
    "\u0120expectations": 6823,
    "\u0120Dan": 6824,
    "\u0120repress": 6825,
    "\u0120deploy": 6826,
    "\u0120determines": 6827,
    "\u0120walls": 6828,
    "polar": 6829,
    "\u0120enabling": 6830,
    "\u0120manufacturing": 6831,
    "\u0120opinion": 6832,
    "\u0120LS": 6833,
    "\u0120vibration": 6834,
    "\u0120Exc": 6835,
    "\u0120Animals": 6836,
    "\u0120Loss": 6837,
    "\u0120respiration": 6838,
    "\u0120Ethical": 6839,
    "\u0120interfere": 6840,
    "enhanced": 6841,
    "\u0120conscious": 6842,
    "\u0120retrieval": 6843,
    "Ls": 6844,
    "ING": 6845,
    "\u0120Sus": 6846,
    "\u0120columns": 6847,
    "\u0120fertility": 6848,
    "\u0120accelerated": 6849,
    "\u0120SK": 6850,
    "\u0120Cost": 6851,
    "\u0120denote": 6852,
    "\u0120Surgical": 6853,
    "\u0120dairy": 6854,
    "\u0120nanoparticle": 6855,
    "\u0120geographical": 6856,
    "partum": 6857,
    "\u0120NAFLD": 6858,
    "\u0120Fc": 6859,
    "\u0120Indian": 6860,
    "ball": 6861,
    "\u0120Sha": 6862,
    "pur": 6863,
    "\u0120biopsies": 6864,
    "\u0120projection": 6865,
    "\u0120SIRT": 6866,
    "\u0120ACC": 6867,
    "bra": 6868,
    "\u0120Bra": 6869,
    "\u0120wider": 6870,
    "\u0120exert": 6871,
    "\u0120mutagen": 6872,
    "\u0120lot": 6873,
    "\u0120pairwise": 6874,
    "\u0120Oxid": 6875,
    "\u0120representations": 6876,
    "CAG": 6877,
    "list": 6878,
    "openia": 6879,
    "\u0120ADHD": 6880,
    "\u0120habits": 6881,
    "ART": 6882,
    "\u0120filament": 6883,
    "ordered": 6884,
    "\u0120TD": 6885,
    "\u0120escape": 6886,
    "\u0120letters": 6887,
    "\u0120Guidelines": 6888,
    "\u0120rely": 6889,
    "\u0120declare": 6890,
    "\u0120urea": 6891,
    "otoxin": 6892,
    "\u0120cub": 6893,
    "\u0120circumstances": 6894,
    "\u0120covers": 6895,
    "osed": 6896,
    "\u0120default": 6897,
    "\u0120seasonal": 6898,
    "\u0120shorten": 6899,
    "\u0120positioning": 6900,
    "\u0120inoculation": 6901,
    "\u0120Pd": 6902,
    "\u0120empty": 6903,
    "osyl": 6904,
    "\u0120pulses": 6905,
    "NTs": 6906,
    "\u0120transfusion": 6907,
    "\u0120conducting": 6908,
    "\u0120inactive": 6909,
    "\u0120filters": 6910,
    "\u0120actively": 6911,
    "\u0120GSH": 6912,
    "\u0120dramatically": 6913,
    "\u0120shr": 6914,
    "\u0120canonical": 6915,
    "\u0120robot": 6916,
    "\u0120referral": 6917,
    "\u0120FF": 6918,
    "\u0120DCs": 6919,
    "blind": 6920,
    "\u0120pixels": 6921,
    "\u0120nucleotides": 6922,
    "\u0120specialized": 6923,
    "\u0120Prevention": 6924,
    "\u0120Tukey": 6925,
    "peritoneal": 6926,
    "\u0120decided": 6927,
    "\u0120endometrial": 6928,
    "unting": 6929,
    "\u0120Netherlands": 6930,
    "\u0120clustered": 6931,
    "\u0120cytosolic": 6932,
    "\u0120Biotechnology": 6933,
    "\u0120zones": 6934,
    "\u0120inferred": 6935,
    "\u0120addressing": 6936,
    "\u0120lineages": 6937,
    "\u0120asymmetric": 6938,
    "availability": 6939,
    "\u0120political": 6940,
    "\u0120illustrate": 6941,
    "\u0120Software": 6942,
    "\u0120functionally": 6943,
    "\u0120Ext": 6944,
    "\u0120Bacillus": 6945,
    "\u0120Cognitive": 6946,
    "\u0120sudden": 6947,
    "\u0120quantities": 6948,
    "\u0120DMEM": 6949,
    "\u0120Ast": 6950,
    "\u0120unless": 6951,
    "\u0120fabrication": 6952,
    "\u0120nodules": 6953,
    "\u0120fatal": 6954,
    "\u0120Standard": 6955,
    "patients": 6956,
    "\u0120biomedical": 6957,
    "\u0120olfactory": 6958,
    "\u0120radicals": 6959,
    ".).": 6960,
    "\u0120evaluations": 6961,
    "\u0120foreign": 6962,
    "\u0120replicate": 6963,
    "\u0120translational": 6964,
    "\u0120harvest": 6965,
    "\u0120returned": 6966,
    "\u0120vo": 6967,
    "\u0120gate": 6968,
    "\u0120Ts": 6969,
    "\u0120cough": 6970,
    "\u0120Die": 6971,
    "\u0120spots": 6972,
    "\u0120stochastic": 6973,
    "\u0120properly": 6974,
    "\u0120mammary": 6975,
    "\u0120CpG": 6976,
    "\u0120supervision": 6977,
    "\u0120KEGG": 6978,
    "\u0120proof": 6979,
    "\u0120accumulated": 6980,
    "OE": 6981,
    "\u0120CNN": 6982,
    "\u0120Dynamic": 6983,
    "\u0120Dietary": 6984,
    "item": 6985,
    "\u0120faces": 6986,
    "\u0120AU": 6987,
    "\u0120muscular": 6988,
    "\u0120vast": 6989,
    "\u0120trypsin": 6990,
    "\u0120accessibility": 6991,
    "\u0120peritoneal": 6992,
    "\u0120references": 6993,
    "\u0120Ce": 6994,
    "\u0120deprivation": 6995,
    "\u0120apparatus": 6996,
    "\u0120Free": 6997,
    "\u0120integral": 6998,
    "efficacy": 6999,
    "\u0120Cat": 7000,
    "\u0120(%)": 7001,
    "\u0120penicillin": 7002,
    "\u0120passed": 7003,
    "\u0120business": 7004,
    "\u0120Gluc": 7005,
    "\u0120circle": 7006,
    "/+": 7007,
    "\u0120periodic": 7008,
    "\u0120FS": 7009,
    "\u0120Ty": 7010,
    "\u0120inadequate": 7011,
    "\u0120tended": 7012,
    "\u0120Between": 7013,
    "uls": 7014,
    "\u0120breathing": 7015,
    "\u0120oocytes": 7016,
    "\u0120MHz": 7017,
    "\u0120played": 7018,
    "\u0120LB": 7019,
    "\u0120Abbreviations": 7020,
    "\u0120clarify": 7021,
    "\u0120arrays": 7022,
    "\u0120similarities": 7023,
    "\u0120orange": 7024,
    "\u0120severely": 7025,
    "\u0120Ax": 7026,
    "\u0120anatomy": 7027,
    "\u0120indirectly": 7028,
    "targeted": 7029,
    "\u0120conjugated": 7030,
    "\u0120Jiang": 7031,
    "\u0120Phys": 7032,
    "\u0120assembled": 7033,
    "\u0120coagulation": 7034,
    "\u0120immunological": 7035,
    "\u0120hypertrophy": 7036,
    "stained": 7037,
    "\u0120instances": 7038,
    "agon": 7039,
    "otoxic": 7040,
    "\u0120leakage": 7041,
    "\u0120slowly": 7042,
    "\u0120classifier": 7043,
    "\u0120vaccinated": 7044,
    "\u0120optimize": 7045,
    "\u0120attenuates": 7046,
    "\u0120falls": 7047,
    "\u0120semantic": 7048,
    "\u0120pet": 7049,
    "\u0120lncRNA": 7050,
    "\u0120Epidemiology": 7051,
    "\u0120EU": 7052,
    "\u0120Mad": 7053,
    "ophore": 7054,
    "\u0120seeking": 7055,
    "oplast": 7056,
    "\u0120intracranial": 7057,
    "\u0120lncRNAs": 7058,
    "\u0120Tim": 7059,
    "\u0120rhythm": 7060,
    "\u0120OF": 7061,
    "\u0120exponential": 7062,
    "\u0120gained": 7063,
    "\u0120RNAi": 7064,
    "\u0120entirely": 7065,
    "\u0120BMD": 7066,
    "\u0120afore": 7067,
    "\u0120rectal": 7068,
    "\u0120surgeons": 7069,
    "\u0120Helsinki": 7070,
    "\u0120pancreas": 7071,
    "\u0120flag": 7072,
    "\u0120HbA": 7073,
    "\u0120Screening": 7074,
    "\u0120minute": 7075,
    "\u0120Australian": 7076,
    "\u0120mAb": 7077,
    "\u0120cyclin": 7078,
    "\u0120diminished": 7079,
    "\u0120notice": 7080,
    "\u0120pipeline": 7081,
    "\u0120historical": 7082,
    "\u0120entered": 7083,
    "\u0120Set": 7084,
    "\u0120GT": 7085,
    "\u0120reality": 7086,
    "\u0120tumorigenesis": 7087,
    "\u0120immunoblot": 7088,
    "\u0120None": 7089,
    "Sp": 7090,
    "energy": 7091,
    "\u0120folding": 7092,
    "\u0120workflow": 7093,
    "\u0120prefrontal": 7094,
    "\u0120Interaction": 7095,
    "\u0120envelope": 7096,
    "\u0120sera": 7097,
    "\u0120Average": 7098,
    "\u0120computing": 7099,
    "\u0120capabilities": 7100,
    "\u0120sap": 7101,
    "\u0120Vitamin": 7102,
    "\u0120Labor": 7103,
    "mouse": 7104,
    "\u0120angiography": 7105,
    "\u0120unchanged": 7106,
    "affected": 7107,
    "\u0120sph": 7108,
    "\u0120DT": 7109,
    "\u0120investigators": 7110,
    "\u0120AKT": 7111,
    "\u0120shapes": 7112,
    "\u0120Korean": 7113,
    "\u0120PLA": 7114,
    "\u0120fabricated": 7115,
    "\u0120Foundation": 7116,
    "\u0120App": 7117,
    "\u0120price": 7118,
    "imaging": 7119,
    "wing": 7120,
    "cing": 7121,
    "\u0120telomere": 7122,
    "\u0120projects": 7123,
    "\u0120DF": 7124,
    "\u0120drink": 7125,
    "\u0120stretching": 7126,
    "\u0120kinds": 7127,
    "\u0120TK": 7128,
    "\u0120spherical": 7129,
    "\u0120choices": 7130,
    "/-": 7131,
    "\u0120moisture": 7132,
    "\u0120unstable": 7133,
    "nic": 7134,
    "\u0120Ros": 7135,
    "\u0120Internet": 7136,
    "\u0120unexpected": 7137,
    "psych": 7138,
    "\u0120Down": 7139,
    "\u0120restrictions": 7140,
    "\u0120glaucoma": 7141,
    "\u0120refractory": 7142,
    "\u0120GBM": 7143,
    "\u0120tRNA": 7144,
    "\u0120HFD": 7145,
    "\u0120aforementioned": 7146,
    "\u0120medicines": 7147,
    "\u0120bases": 7148,
    "\u0120Binding": 7149,
    "\u0120journal": 7150,
    "\u0120solve": 7151,
    "\u0120Cur": 7152,
    "\u0120cAMP": 7153,
    "\u0120glands": 7154,
    "\u0120tea": 7155,
    "\u0120leuc": 7156,
    "\u0120staging": 7157,
    "\u0120grains": 7158,
    "\u0120Know": 7159,
    "\u0120weakness": 7160,
    "\u0120heparin": 7161,
    "\u0120Illumina": 7162,
    "\u0120LM": 7163,
    "\u0120fragmentation": 7164,
    "\u0120assistance": 7165,
    "\u0120provider": 7166,
    "\u0120aberrant": 7167,
    "\u0120pollen": 7168,
    "\u0120cortisol": 7169,
    "\u0120bypass": 7170,
    "\u0120systematically": 7171,
    "Data": 7172,
    "\u0120Error": 7173,
    "ops": 7174,
    "\u0120atypical": 7175,
    "\u0120fate": 7176,
    "\u0120ensemble": 7177,
    "\u0120grass": 7178,
    "\u0120KR": 7179,
    "\u0120experiencing": 7180,
    "\u0120dosing": 7181,
    "\u0120demographics": 7182,
    "\u0120Questionnaire": 7183,
    "\u0120doctor": 7184,
    "\u0120Heat": 7185,
    "\u0120reversible": 7186,
    "\u0120convergence": 7187,
    "STAT": 7188,
    "\u0120droplet": 7189,
    "\u0120Hal": 7190,
    "\u0120employing": 7191,
    "\u0120leptin": 7192,
    "cyt": 7193,
    "\u0120alters": 7194,
    "\u0120differs": 7195,
    "\u0120spaces": 7196,
    "\u0120MIC": 7197,
    "\u0120IN": 7198,
    "\u0120Properties": 7199,
    "nutrition": 7200,
    "\u0120attractive": 7201,
    "\u0120came": 7202,
    "\u0120ant": 7203,
    "\u0120attenuation": 7204,
    "\u0120flies": 7205,
    "\u0120Therapeutic": 7206,
    "\u0120Analy": 7207,
    "\u0120Last": 7208,
    "\u0120distilled": 7209,
    "ulent": 7210,
    "aded": 7211,
    "\u0120ACT": 7212,
    "\u0120bipolar": 7213,
    "\u0120withdrawal": 7214,
    "\u0120functionality": 7215,
    "\u0120going": 7216,
    "\u0120osteoporosis": 7217,
    "\u0120salivary": 7218,
    "\u0120generates": 7219,
    "\u0120reprogram": 7220,
    "\u0120Pharm": 7221,
    "family": 7222,
    "atom": 7223,
    "\u0120diastolic": 7224,
    "\u0120commit": 7225,
    "\u0120indications": 7226,
    "\u0120Pattern": 7227,
    "\u0120Higher": 7228,
    "\u0120CXCR": 7229,
    "ifiers": 7230,
    "\u0120sides": 7231,
    "\u0120photon": 7232,
    "\u0120slower": 7233,
    "His": 7234,
    "\u0120aggregate": 7235,
    "\u0120Large": 7236,
    "\u0120ligament": 7237,
    "erman": 7238,
    "original": 7239,
    "\u0120conservative": 7240,
    "\u0120Percent": 7241,
    "\u0120organizational": 7242,
    "\u0120Infection": 7243,
    "\u0120beg": 7244,
    "\u0120consumers": 7245,
    "\u0120covering": 7246,
    "\u0120phone": 7247,
    "\u0120restoration": 7248,
    "\u0120periodontal": 7249,
    "book": 7250,
    "\u0120pin": 7251,
    "\u0120driver": 7252,
    "\u0120FR": 7253,
    "\u0120legal": 7254,
    "\u0120Incidence": 7255,
    "\u0120drainage": 7256,
    "uming": 7257,
    "\u0120Tokyo": 7258,
    "\u0120smoke": 7259,
    "\u0120hole": 7260,
    "\u0120automatically": 7261,
    "\u0120compartments": 7262,
    "\u0120agarose": 7263,
    "\u0120arising": 7264,
    "\u0120joints": 7265,
    "\u0120titers": 7266,
    "\u0120labels": 7267,
    "\u0120dengue": 7268,
    "\u0120mitotic": 7269,
    "\u0120seedlings": 7270,
    "\u0120adoption": 7271,
    "\u0120LL": 7272,
    "MSCs": 7273,
    "omotor": 7274,
    "\u0120conditional": 7275,
    "\u0120superoxide": 7276,
    "\u0120Web": 7277,
    "\u0120adrenal": 7278,
    "conn": 7279,
    "\u0120essentially": 7280,
    "\u0120conduction": 7281,
    "uchi": 7282,
    "\u0120complain": 7283,
    "\u0120supernatants": 7284,
    "\u0120metformin": 7285,
    "\u0120evolved": 7286,
    "\u0120implementing": 7287,
    "\u0120rescue": 7288,
    "\u0120vulnerability": 7289,
    "\u0120Candida": 7290,
    "\u0120PFS": 7291,
    "\u0120literacy": 7292,
    "\u0120GAPDH": 7293,
    "\u0120November": 7294,
    "\u0120deficit": 7295,
    "\u0120Environmental": 7296,
    "\u0120brought": 7297,
    "\u0120eukaryotic": 7298,
    "\u0120engineered": 7299,
    "\u0120runs": 7300,
    "\u0120Taiwan": 7301,
    "\u0120globally": 7302,
    "\u0120Images": 7303,
    "\u0120fluids": 7304,
    "\u0120neoplasm": 7305,
    "\u0120tetra": 7306,
    "\u0120Dom": 7307,
    "\u0120Mu": 7308,
    "\u0120idiopathic": 7309,
    "\u0120modeled": 7310,
    "\u0120Frontiers": 7311,
    "\u0120angular": 7312,
    "ION": 7313,
    "\u0120Louis": 7314,
    "elli": 7315,
    "\u0120topics": 7316,
    "\u0120excision": 7317,
    "\u0120facilitating": 7318,
    "\u0120recommendation": 7319,
    "carbon": 7320,
    "\u0120Prediction": 7321,
    "\u0120Enhanced": 7322,
    "\u0120peroxide": 7323,
    "\u0120soybean": 7324,
    "\u0120die": 7325,
    "\u0120fused": 7326,
    "\u0120selecting": 7327,
    "\u0120deficient": 7328,
    "\u0120School": 7329,
    "\u0120handling": 7330,
    "\u0120personnel": 7331,
    "\u0120curcumin": 7332,
    "\u0120indicative": 7333,
    "azine": 7334,
    "\u0120cited": 7335,
    "\u0120modality": 7336,
    "eller": 7337,
    "\u0120outbreaks": 7338,
    "\u0120electrostatic": 7339,
    "\u0120ensuring": 7340,
    "\u0120operational": 7341,
    "\u0120overexpressed": 7342,
    "\u0120pyr": 7343,
    "\u0120viewed": 7344,
    "\u0120Wol": 7345,
    "\u0120MSC": 7346,
    "\u0120glioblastoma": 7347,
    "\u0120Bor": 7348,
    "inflammation": 7349,
    "\u0120immunoglobulin": 7350,
    "\u0120FDA": 7351,
    "\u0120nitro": 7352,
    "\u0120Dys": 7353,
    "\u0120drying": 7354,
    "\u0120Leu": 7355,
    "\u0120designated": 7356,
    "\u0120partition": 7357,
    "\u0120VP": 7358,
    "\u0120ratings": 7359,
    "\u0120guided": 7360,
    "\u0120destruction": 7361,
    "\u0120defining": 7362,
    "width": 7363,
    "\u0120Plasmodium": 7364,
    "\u0120monthly": 7365,
    "\u0120endpoint": 7366,
    "\u0120migraine": 7367,
    "\u0120facilitated": 7368,
    "\u0120sharp": 7369,
    "system": 7370,
    "\u0120Assay": 7371,
    "\u0120Supplemental": 7372,
    "\u0120mechanistic": 7373,
    "\u0120junctions": 7374,
    "\u0120capsule": 7375,
    "\u0120purity": 7376,
    "\u0120Ras": 7377,
    "\u0120lives": 7378,
    "\u0120PW": 7379,
    "assay": 7380,
    "rate": 7381,
    "\u0120boot": 7382,
    "\u0120verbal": 7383,
    "\u0120Hg": 7384,
    "\u0120Ten": 7385,
    "\u0120fist": 7386,
    "\u0120albicans": 7387,
    "\u0120priority": 7388,
    "\u0120Whole": 7389,
    "\u0120Diseases": 7390,
    "\u0120bat": 7391,
    "\u0120bending": 7392,
    "\u0120Common": 7393,
    "iner": 7394,
    "\u0120coded": 7395,
    "\u0120DAPI": 7396,
    "\u0120City": 7397,
    "\u0120sulfur": 7398,
    "\u0120winter": 7399,
    "\u0120master": 7400,
    "\u0120Fourier": 7401,
    "\u0120cas": 7402,
    "\u0120Energy": 7403,
    "\u0120Upon": 7404,
    "\u0120hope": 7405,
    "\u0120texture": 7406,
    "\u0120cessation": 7407,
    "\u0120leave": 7408,
    "\u0120outlined": 7409,
    "ulfide": 7410,
    "Bank": 7411,
    "\u0120ribosomal": 7412,
    "called": 7413,
    "\u0120spray": 7414,
    "\u0120saliva": 7415,
    "\u0120resident": 7416,
    "\u0120LR": 7417,
    "\u0120Prognostic": 7418,
    "\u0120Implications": 7419,
    "\u0120firing": 7420,
    "\u0120tubular": 7421,
    ")...,": 7422,
    "\u0120southern": 7423,
    "\u0120MN": 7424,
    "\u0120acceleration": 7425,
    "\u0120attempted": 7426,
    "\u0120nas": 7427,
    "\u0120soils": 7428,
    "\u0120drivers": 7429,
    "\u0120sci": 7430,
    "\u0120Mycobacterium": 7431,
    "\u0120XRD": 7432,
    "onate": 7433,
    "\u0120backbone": 7434,
    "\u0120Contributions": 7435,
    "\u0120PubMed": 7436,
    "\u0120ethnicity": 7437,
    "\u0120epitope": 7438,
    "\u0120evidenced": 7439,
    "\u0120originally": 7440,
    "\u0120PTSD": 7441,
    "\u0120FM": 7442,
    "\u0120Oxidative": 7443,
    "\u0120Anders": 7444,
    "\u0120ICD": 7445,
    "\u0120tropical": 7446,
    "\u0120hidden": 7447,
    "\u0120doing": 7448,
    "\u0120epitopes": 7449,
    "\u0120Positive": 7450,
    "species": 7451,
    "\u0120managing": 7452,
    "\u0120cutting": 7453,
    "\u0120discussions": 7454,
    "\u0120biogenesis": 7455,
    "\u0120configurations": 7456,
    "\u0120geometric": 7457,
    "\u0120leadership": 7458,
    "\u0120comments": 7459,
    "\u0120Hom": 7460,
    "\u0120reproducibility": 7461,
    "\u0120creation": 7462,
    "\u0120strept": 7463,
    "\u0120apart": 7464,
    "ranged": 7465,
    "\u0120Gas": 7466,
    "\u0120brains": 7467,
    "\u0120cats": 7468,
    "\u0120Adj": 7469,
    "\u0120porcine": 7470,
    "\u0120Proteins": 7471,
    "\u0120chemokine": 7472,
    "\u0120responsibility": 7473,
    "\u0120magnet": 7474,
    "\u0120approximate": 7475,
    "\u0120ordered": 7476,
    "\u0120swim": 7477,
    "\u0120glycolysis": 7478,
    "\u0120Twenty": 7479,
    "\u0120Community": 7480,
    "\u0120angiotensin": 7481,
    "\u0120cure": 7482,
    "\u0120ration": 7483,
    "\u0120Sensitivity": 7484,
    "\u0120sheet": 7485,
    "\u0120medicinal": 7486,
    "\u0120Various": 7487,
    "\u0120printing": 7488,
    "\u0120fill": 7489,
    "\u0120breath": 7490,
    "\u0120Resistance": 7491,
    "\u0120bridge": 7492,
    "\u0120Those": 7493,
    "rd": 7494,
    "\u0120abscess": 7495,
    "\u0120Hi": 7496,
    "\u0120highlighting": 7497,
    "molecular": 7498,
    "\u0120prophylaxis": 7499,
    "\u0120osteoarthritis": 7500,
    "\u0120college": 7501,
    "sense": 7502,
    "\u0120soon": 7503,
    "\u0120notion": 7504,
    "\u0120multicenter": 7505,
    "\u0120amongst": 7506,
    "oyl": 7507,
    "\u0120teams": 7508,
    "\u0120impedance": 7509,
    "\u0120falciparum": 7510,
    "\u0120nitrate": 7511,
    "\u0120Bonferroni": 7512,
    "\u0120coast": 7513,
    "\u0120calls": 7514,
    "\u0120VO": 7515,
    "osol": 7516,
    "\u0120reconstructed": 7517,
    "glucose": 7518,
    "\u0120dielectric": 7519,
    "\u0120eq": 7520,
    "\u0120Hsp": 7521,
    "\u0120Magnetic": 7522,
    "\u0120heterozygous": 7523,
    "\u0120pressures": 7524,
    "\u0120Pain": 7525,
    "\u0120surgeon": 7526,
    "\u0120crops": 7527,
    "\u0120lists": 7528,
    "\u0120preservation": 7529,
    "\u0120intraoperative": 7530,
    "\u0120wash": 7531,
    "\u0120Project": 7532,
    "\u0120VI": 7533,
    "\u0120Phylogenetic": 7534,
    "was": 7535,
    "\u0120rejection": 7536,
    "\u0120establishing": 7537,
    "\u0120ba": 7538,
    "\u0120adipocytes": 7539,
    "\u0120Fast": 7540,
    "real": 7541,
    "\u0120Unfortunately": 7542,
    "\u0120disturbance": 7543,
    "\u0120cleaved": 7544,
    "\u0120rated": 7545,
    "\u0120district": 7546,
    "\u0120filaments": 7547,
    "\u0120Depression": 7548,
    "\u0120psoriasis": 7549,
    "\u0120vesicle": 7550,
    "\u0120noticed": 7551,
    "\u0120transcribed": 7552,
    "\u0120Prism": 7553,
    "\u0120filling": 7554,
    "eh": 7555,
    "\u0120imbalance": 7556,
    "\u0120modest": 7557,
    "\u0120xyl": 7558,
    "\u0120kernel": 7559,
    "\u0120translated": 7560,
    "\u0120immuno": 7561,
    "\u0120Mouse": 7562,
    "xia": 7563,
    "\u0120modify": 7564,
    "\u0120mounted": 7565,
    "\u0120spindle": 7566,
    "\u0120passage": 7567,
    "space": 7568,
    "\u0120friends": 7569,
    "\u0120Family": 7570,
    "\u0120AKI": 7571,
    "\u0120integrating": 7572,
    "\u0120Cardiac": 7573,
    "\u0120Creative": 7574,
    "\u0120stratification": 7575,
    "\u0120Spain": 7576,
    "\u0120CFU": 7577,
    "\u0120inflammasome": 7578,
    "\u0120JNK": 7579,
    "\u0120prenatal": 7580,
    "\u0120topical": 7581,
    "\u0120biotin": 7582,
    "fib": 7583,
    "\u0120ALS": 7584,
    "menopausal": 7585,
    "\u0120precisely": 7586,
    "Mo": 7587,
    "\u0120BDNF": 7588,
    "\u0120insects": 7589,
    "\u0120Spatial": 7590,
    "dial": 7591,
    "\u0120irre": 7592,
    "\u0120pores": 7593,
    "\u0120orders": 7594,
    "\u0120shifted": 7595,
    "hou": 7596,
    "\u0120seemed": 7597,
    "\u0120hub": 7598,
    "\u0120harmful": 7599,
    "hour": 7600,
    "\u0120exploratory": 7601,
    "\u0120comfort": 7602,
    "\u0120names": 7603,
    "olymer": 7604,
    "\u0120Hall": 7605,
    "\u0120flank": 7606,
    "ulse": 7607,
    "\u0120agonists": 7608,
    "\u0120Ter": 7609,
    "arity": 7610,
    "\u0120homozygous": 7611,
    "\u0120paraffin": 7612,
    "\u0120searched": 7613,
    "\u0120contig": 7614,
    "\u0120Land": 7615,
    "\u0120transportation": 7616,
    "\u0120breastfeeding": 7617,
    "\u0120responded": 7618,
    "\u0120Together": 7619,
    "\u0120Optical": 7620,
    "\u0120sac": 7621,
    "\u0120neutralizing": 7622,
    "\u0120endemic": 7623,
    "\u0120apo": 7624,
    "\u0120theories": 7625,
    "\u0120AAV": 7626,
    "\u0120Receptor": 7627,
    "that": 7628,
    "\u0120compatible": 7629,
    "\u0120syring": 7630,
    "\u0120talk": 7631,
    "\u0120Descriptive": 7632,
    "\u0120repression": 7633,
    "\u0120pointed": 7634,
    "\u0120stigma": 7635,
    "\u0120drives": 7636,
    "\u0120machinery": 7637,
    "\u0120rock": 7638,
    "\u0120PARP": 7639,
    "fit": 7640,
    "\u0120innovative": 7641,
    "\u0120hands": 7642,
    "\u0120seizure": 7643,
    "Similar": 7644,
    "\u0120Tg": 7645,
    "\u0120monomer": 7646,
    "\u0120summer": 7647,
    "\u0120internet": 7648,
    "\u0120bootstrap": 7649,
    "\u0120oxidized": 7650,
    "net": 7651,
    "mph": 7652,
    "\u0120Stim": 7653,
    "\u0120Mental": 7654,
    "encephal": 7655,
    "fed": 7656,
    "\u0120TCGA": 7657,
    "\u0120melting": 7658,
    "\u0120constitute": 7659,
    "\u0120electrolyte": 7660,
    "\u0120crystalline": 7661,
    "\u0120Sweden": 7662,
    "\u0120conductance": 7663,
    "\u0120masses": 7664,
    "\u0120germination": 7665,
    "nexin": 7666,
    "\u0120courses": 7667,
    "\u0120dioxide": 7668,
    "\u0120keeping": 7669,
    "\u0120tandem": 7670,
    "\u0120efflux": 7671,
    "\u0120iP": 7672,
    "sulf": 7673,
    "\u0120sediment": 7674,
    "\u0120glial": 7675,
    "\u0120Mach": 7676,
    "vac": 7677,
    "\u0120Niger": 7678,
    "\u0120importantly": 7679,
    "\u0120solvents": 7680,
    "ativity": 7681,
    "\u0120catalysts": 7682,
    "\u0120Hamilton": 7683,
    "\u0120dot": 7684,
    "\u0120Secondary": 7685,
    "\u0120comprises": 7686,
    "depth": 7687,
    "\u0120Py": 7688,
    "\u0120lumen": 7689,
    "\u0120ankle": 7690,
    "\u0120Nak": 7691,
    "\u0120leaving": 7692,
    "\u0120wastewater": 7693,
    "cis": 7694,
    "nan": 7695,
    "\u0120reductase": 7696,
    "\u0120cotton": 7697,
    "OG": 7698,
    "\u0120lethal": 7699,
    "\u0120Off": 7700,
    "\u0120ss": 7701,
    "orf": 7702,
    "\u0120things": 7703,
    "\u0120mention": 7704,
    "\u0120axon": 7705,
    "\u0120River": 7706,
    "\u0120regulations": 7707,
    "\u0120BS": 7708,
    "\u0120collective": 7709,
    "\u0120suspended": 7710,
    "\u0120emphasis": 7711,
    "\u0120multiplex": 7712,
    "diabetic": 7713,
    "sample": 7714,
    "\u0120span": 7715,
    "\u0120Frequency": 7716,
    "\u0120adulthood": 7717,
    "\u0120microtubule": 7718,
    "\u0120deterioration": 7719,
    "\u0120Associated": 7720,
    "\u0120propensity": 7721,
    "\u0120Cruz": 7722,
    "\u0120LF": 7723,
    "marks": 7724,
    "\u0120feeling": 7725,
    "\u0120Conceptual": 7726,
    "UP": 7727,
    "\u0120continues": 7728,
    "\u0120expenditure": 7729,
    "\u0120conflicts": 7730,
    "\u0120Combined": 7731,
    "\u0120concerned": 7732,
    "\u0120arrangement": 7733,
    "\u0120LE": 7734,
    "\u0120niche": 7735,
    "\u0120competence": 7736,
    "adjuvant": 7737,
    "\u0120victim": 7738,
    "\u0120inpatient": 7739,
    "matched": 7740,
    "\u0120ABC": 7741,
    "\u0120papill": 7742,
    "\u0120discrepancy": 7743,
    "\u0120histology": 7744,
    "\u0120flavonoids": 7745,
    "tidine": 7746,
    "\u0120disturbances": 7747,
    "\u0120saturated": 7748,
    "\u0120transmit": 7749,
    "\u0120CAP": 7750,
    "\u0120anaerobic": 7751,
    "\u0120kidneys": 7752,
    "\u0120looking": 7753,
    "With": 7754,
    "\u0120CAT": 7755,
    "\u0120fly": 7756,
    "\u0120easier": 7757,
    "choline": 7758,
    "\u0120avoidance": 7759,
    "aping": 7760,
    "bottom": 7761,
    "\u0120Mex": 7762,
    "\u0120AND": 7763,
    "\u0120nerves": 7764,
    "\u0120boys": 7765,
    "\u0120spreading": 7766,
    "\u0120HepG": 7767,
    "\u0120pigment": 7768,
    "\u0120\u2424-": 7769,
    "\u0120gyrus": 7770,
    "\u0120Stem": 7771,
    "\u0120cardiomyopathy": 7772,
    "\u0120fashion": 7773,
    "\u0120impacted": 7774,
    "\u0120Instead": 7775,
    "\u0120magnesium": 7776,
    "\u0120Comparing": 7777,
    "\u0120Shanghai": 7778,
    "\u0120massive": 7779,
    "\u0120PKC": 7780,
    "\u0120reaches": 7781,
    "\u0120mediator": 7782,
    "\u0120Access": 7783,
    "othermal": 7784,
    "\u0120biases": 7785,
    "\u0120Production": 7786,
    "\u0120negligible": 7787,
    "\u0120relies": 7788,
    "\u0120palliative": 7789,
    "\u0120exercises": 7790,
    "\u0120flap": 7791,
    "\u0120retain": 7792,
    "\u0120Informed": 7793,
    "loop": 7794,
    "\u0120collision": 7795,
    "\u0120Lymph": 7796,
    "portion": 7797,
    "\u0120freedom": 7798,
    "\u0120SLE": 7799,
    "\u0120sorting": 7800,
    "viruses": 7801,
    "\u0120stationary": 7802,
    "\u0120cloning": 7803,
    "\u0120DPP": 7804,
    "\u0120adenosine": 7805,
    "\u0120positivity": 7806,
    "\u0120Sleep": 7807,
    "\u0120positioned": 7808,
    "\u0120micrograph": 7809,
    "\u0120Unlike": 7810,
    "\u0120poorer": 7811,
    "\u0120stopped": 7812,
    "personal": 7813,
    "\u0120ethyl": 7814,
    "Gal": 7815,
    "\u0120IgM": 7816,
    "\u0120forced": 7817,
    "ilation": 7818,
    "\u0120septic": 7819,
    "\u0120claims": 7820,
    "genome": 7821,
    "\u0120loops": 7822,
    "\u0120testosterone": 7823,
    "\u0120Finding": 7824,
    "\u0120attributable": 7825,
    "\u0120projections": 7826,
    "\u0120Lactobacillus": 7827,
    "\u0120lect": 7828,
    "\u0120unusual": 7829,
    "\u0120counterparts": 7830,
    "\u0120Biosciences": 7831,
    "\u0120syndromes": 7832,
    "\u0120firm": 7833,
    "\u0120percutaneous": 7834,
    "\u0120Major": 7835,
    "case": 7836,
    "\u0120taxonomic": 7837,
    "\u0120microbes": 7838,
    "\u0120companies": 7839,
    "local": 7840,
    "forms": 7841,
    "\u0120therapeutics": 7842,
    "\u0120Associations": 7843,
    "\u0120carcinomas": 7844,
    "\u0120excited": 7845,
    "\u0120lymphoid": 7846,
    "\u0120addiction": 7847,
    "\u0120funded": 7848,
    "ska": 7849,
    "\u0120apt": 7850,
    "\u0120Italian": 7851,
    "\u0120annealing": 7852,
    "\u0120digested": 7853,
    "\u0120dysregulation": 7854,
    "\u0120topological": 7855,
    "\u0120feelings": 7856,
    "\u0120Mutations": 7857,
    "olateral": 7858,
    "\u0120Likewise": 7859,
    "\u0120MAL": 7860,
    "\u0120microstructure": 7861,
    "\u0120reflex": 7862,
    "\u0120executive": 7863,
    "\u0120string": 7864,
    "\u0120neighborhood": 7865,
    "\u0120fuel": 7866,
    "\u0120unlike": 7867,
    "\u0120helped": 7868,
    "ava": 7869,
    "\u0120heated": 7870,
    "lines": 7871,
    "\u0120pocket": 7872,
    "\u0120Arch": 7873,
    "\u0120honey": 7874,
    "\u0120ORF": 7875,
    "\u0120monocyte": 7876,
    "\u0120rigid": 7877,
    "\u0120acetylation": 7878,
    "\u0120receiver": 7879,
    "\u0120Nano": 7880,
    "\u0120circuits": 7881,
    "\u0120genomics": 7882,
    "\u0120deeper": 7883,
    "\u0120IgA": 7884,
    "\u0120cultivation": 7885,
    "white": 7886,
    "\u0120corrosion": 7887,
    "long": 7888,
    "\u0120really": 7889,
    "\u0120Covid": 7890,
    "\u0120enroll": 7891,
    "\u0120California": 7892,
    "\u0120postpartum": 7893,
    "\u0120prompt": 7894,
    "\u0120optimum": 7895,
    "\u0120orbital": 7896,
    "\u0120Maternal": 7897,
    "\u0120HI": 7898,
    "both": 7899,
    "\u0120defective": 7900,
    "\u0120contra": 7901,
    "\u0120Golgi": 7902,
    "\u0120OC": 7903,
    "\u0120cow": 7904,
    "\u0120newborn": 7905,
    "\u0120topology": 7906,
    "\u0120encountered": 7907,
    "words": 7908,
    "\u0120aorta": 7909,
    "\u0120music": 7910,
    "\u0120thinking": 7911,
    "oxygenase": 7912,
    "UTR": 7913,
    "\u0120attending": 7914,
    "\u0120Cardiovascular": 7915,
    "\u0120biofilms": 7916,
    "relevant": 7917,
    "\u0120cone": 7918,
    "\u0120axonal": 7919,
    "\u0120Administration": 7920,
    "\u0120restored": 7921,
    "\u0120Fluorescence": 7922,
    "\u0120Outcome": 7923,
    "\u0120frailty": 7924,
    "\u0120Ethiopia": 7925,
    "\u0120clade": 7926,
    "\u0120monolayer": 7927,
    "\u0120Lipid": 7928,
    "fr": 7929,
    "\u0120discover": 7930,
    "\u0120inorganic": 7931,
    "iol": 7932,
    "\u0120confirms": 7933,
    "\u0120proliferative": 7934,
    "expressed": 7935,
    "\u0120vegetation": 7936,
    "plane": 7937,
    "\u0120genotyping": 7938,
    "\u0120physically": 7939,
    "\u0120SCI": 7940,
    "eps": 7941,
    "\u0120Hong": 7942,
    "\u0120aneurysm": 7943,
    "CTT": 7944,
    "\u0120phenol": 7945,
    "\u0120broadly": 7946,
    "\u0120Air": 7947,
    "\u0120engaged": 7948,
    "\u0120plaques": 7949,
    "\u0120superficial": 7950,
    "\u0120Us": 7951,
    "oea": 7952,
    "\u0120responsiveness": 7953,
    "\u0120synapses": 7954,
    "\u0120Generation": 7955,
    "\u0120inconsistent": 7956,
    "\u0120elicited": 7957,
    "\u0120distinguished": 7958,
    "\u0120Induction": 7959,
    "\u0120radiological": 7960,
    "\u0120convolutional": 7961,
    "effectiveness": 7962,
    "\u0120disparities": 7963,
    "\u0120Again": 7964,
    "\u0120era": 7965,
    "oplasty": 7966,
    "\u0120infrastructure": 7967,
    "\u0120recipient": 7968,
    "\u0120exactly": 7969,
    "\u0120evoked": 7970,
    "\u0120glomerular": 7971,
    "\u0120DOI": 7972,
    "\u0120pivotal": 7973,
    "\u0120Pap": 7974,
    "\u0120delays": 7975,
    "\u0120moved": 7976,
    "\u0120interplay": 7977,
    "\u0120antifungal": 7978,
    "\u0120RIP": 7979,
    "\u0120housing": 7980,
    "\u0120splice": 7981,
    "\u0120polyclonal": 7982,
    "\u0120lupus": 7983,
    "\u0120MPa": 7984,
    "imetry": 7985,
    "\u0120trem": 7986,
    "\u0120Subjects": 7987,
    "\u0120APP": 7988,
    "\u0120burst": 7989,
    "])": 7990,
    "\u0120advice": 7991,
    "\u0120Hor": 7992,
    "\u0120GSK": 7993,
    "\u0120campaign": 7994,
    "\u0120LN": 7995,
    "\u0120explicitly": 7996,
    "\u0120cardiomyocytes": 7997,
    "Met": 7998,
    "\u0120boxes": 7999,
    "\u0120chip": 8000,
    "\u0120ChIP": 8001,
    "\u0120book": 8002,
    "\u0120origins": 8003,
    "\u0120assignment": 8004,
    "\u0120liposomes": 8005,
    "\u0120IHC": 8006,
    "\u0120Tet": 8007,
    "\u0120places": 8008,
    "\u0120missed": 8009,
    "\u0120Carbon": 8010,
    "\u0120Nuclear": 8011,
    "....,": 8012,
    "\u0120volatile": 8013,
    "\u0120termed": 8014,
    "\u0120pod": 8015,
    "\u0120iso": 8016,
    "\u0120visceral": 8017,
    "\u0120favour": 8018,
    "\u0120slice": 8019,
    "\u0120Left": 8020,
    "\u0120affective": 8021,
    "\u0120Mechanism": 8022,
    "\u0120suture": 8023,
    "\u0120boost": 8024,
    "\u0120extending": 8025,
    "\u0120determinant": 8026,
    "\u0120subcellular": 8027,
    "\u0120bit": 8028,
    "\u0120Streptococcus": 8029,
    "\u0120cerebellar": 8030,
    "\u0120antioxidants": 8031,
    "ichi": 8032,
    "\u0120symmetric": 8033,
    "WS": 8034,
    "\u0120oncogenic": 8035,
    "\u0120Good": 8036,
    "\u0120serotonin": 8037,
    "\u0120macular": 8038,
    "\u0120neighboring": 8039,
    "\u0120lesser": 8040,
    "\u0120mutual": 8041,
    "ander": 8042,
    "\u0120curvature": 8043,
    "\u0120cyclo": 8044,
    "\u0120Electro": 8045,
    "\u0120bioavailability": 8046,
    "\u0120rings": 8047,
    "\u0120profound": 8048,
    "\u0120patches": 8049,
    "\u0120taste": 8050,
    "\u0120potency": 8051,
    "\u0120oils": 8052,
    "\u0120MTT": 8053,
    "\u0120Blue": 8054,
    "\u0120abdomen": 8055,
    "\u0120killing": 8056,
    "\u0120melatonin": 8057,
    "\u0120gelatin": 8058,
    "\u0120Santa": 8059,
    "\u0120eliminated": 8060,
    "\u0120compute": 8061,
    "\u0120consumer": 8062,
    "\u0120registry": 8063,
    "\u0120leukocyte": 8064,
    "\u0120cd": 8065,
    "\u0120Core": 8066,
    "\u0120disrupted": 8067,
    "\u0120silico": 8068,
    "transfected": 8069,
    "\u0120asymmetry": 8070,
    "genesis": 8071,
    "\u0120regularly": 8072,
    "\u0120ros": 8073,
    "\u0120citrate": 8074,
    "\u0120secretory": 8075,
    "\u0120PTEN": 8076,
    "\u0120Obesity": 8077,
    "\u0120comorbidity": 8078,
    "Sub": 8079,
    "\u0120server": 8080,
    "\u0120injured": 8081,
    "\u0120imaged": 8082,
    "\u0120constituents": 8083,
    "\u0120cultivars": 8084,
    "\u0120apparently": 8085,
    "\u0120relief": 8086,
    "\u0120bad": 8087,
    "\u0120adhesive": 8088,
    "\u0120Education": 8089,
    "\u0120neuropathy": 8090,
    "\u0120hygiene": 8091,
    "\u0120larval": 8092,
    "acrylamide": 8093,
    "\u0120website": 8094,
[...]
